node {
  name: "x"
  op: "Placeholder"
  attr {
    key: "dtype"
    value {
      type: DT_FLOAT
    }
  }
  attr {
    key: "shape"
    value {
      shape {
        dim {
          size: -1
        }
        dim {
          size: 100
        }
        dim {
          size: 12
        }
      }
    }
  }
}
node {
  name: "sequential_1/lstm_1/zeros_1/packed/1"
  op: "Const"
  attr {
    key: "dtype"
    value {
      type: DT_INT32
    }
  }
  attr {
    key: "value"
    value {
      tensor {
        dtype: DT_INT32
        tensor_shape {
        }
        int_val: 32
      }
    }
  }
}
node {
  name: "sequential_1/lstm_1/zeros_1/Const"
  op: "Const"
  attr {
    key: "dtype"
    value {
      type: DT_FLOAT
    }
  }
  attr {
    key: "value"
    value {
      tensor {
        dtype: DT_FLOAT
        tensor_shape {
        }
      }
    }
  }
}
node {
  name: "sequential_1/lstm_1/strided_slice/stack"
  op: "Const"
  attr {
    key: "dtype"
    value {
      type: DT_INT32
    }
  }
  attr {
    key: "value"
    value {
      tensor {
        dtype: DT_INT32
        tensor_shape {
          dim {
            size: 1
          }
        }
      }
    }
  }
}
node {
  name: "sequential_1/lstm_1/strided_slice/stack_1"
  op: "Const"
  attr {
    key: "dtype"
    value {
      type: DT_INT32
    }
  }
  attr {
    key: "value"
    value {
      tensor {
        dtype: DT_INT32
        tensor_shape {
          dim {
            size: 1
          }
        }
        int_val: 1
      }
    }
  }
}
node {
  name: "sequential_1/lstm_1/strided_slice/stack_2"
  op: "Const"
  attr {
    key: "dtype"
    value {
      type: DT_INT32
    }
  }
  attr {
    key: "value"
    value {
      tensor {
        dtype: DT_INT32
        tensor_shape {
          dim {
            size: 1
          }
        }
        int_val: 1
      }
    }
  }
}
node {
  name: "sequential_1/lstm_1/PartitionedCall/transpose/perm"
  op: "Const"
  attr {
    key: "dtype"
    value {
      type: DT_INT32
    }
  }
  attr {
    key: "value"
    value {
      tensor {
        dtype: DT_INT32
        tensor_shape {
          dim {
            size: 3
          }
        }
        tensor_content: "\001\000\000\000\000\000\000\000\002\000\000\000"
      }
    }
  }
}
node {
  name: "sequential_1/lstm_1/PartitionedCall/TensorArrayUnstack/TensorListFromTensor/element_shape"
  op: "Const"
  attr {
    key: "dtype"
    value {
      type: DT_INT32
    }
  }
  attr {
    key: "value"
    value {
      tensor {
        dtype: DT_INT32
        tensor_shape {
          dim {
            size: 2
          }
        }
        tensor_content: "\377\377\377\377\014\000\000\000"
      }
    }
  }
}
node {
  name: "sequential_1/lstm_1/PartitionedCall/time"
  op: "Const"
  attr {
    key: "dtype"
    value {
      type: DT_INT32
    }
  }
  attr {
    key: "value"
    value {
      tensor {
        dtype: DT_INT32
        tensor_shape {
        }
      }
    }
  }
}
node {
  name: "sequential_1/lstm_1/PartitionedCall/while/loop_counter"
  op: "Const"
  attr {
    key: "dtype"
    value {
      type: DT_INT32
    }
  }
  attr {
    key: "value"
    value {
      tensor {
        dtype: DT_INT32
        tensor_shape {
        }
      }
    }
  }
}
node {
  name: "sequential_1/lstm_1/PartitionedCall/strided_slice/stack"
  op: "Const"
  attr {
    key: "dtype"
    value {
      type: DT_INT32
    }
  }
  attr {
    key: "value"
    value {
      tensor {
        dtype: DT_INT32
        tensor_shape {
          dim {
            size: 1
          }
        }
      }
    }
  }
}
node {
  name: "sequential_1/lstm_1/PartitionedCall/strided_slice/stack_1"
  op: "Const"
  attr {
    key: "dtype"
    value {
      type: DT_INT32
    }
  }
  attr {
    key: "value"
    value {
      tensor {
        dtype: DT_INT32
        tensor_shape {
          dim {
            size: 1
          }
        }
        int_val: 1
      }
    }
  }
}
node {
  name: "sequential_1/lstm_1/PartitionedCall/strided_slice/stack_2"
  op: "Const"
  attr {
    key: "dtype"
    value {
      type: DT_INT32
    }
  }
  attr {
    key: "value"
    value {
      tensor {
        dtype: DT_INT32
        tensor_shape {
          dim {
            size: 1
          }
        }
        int_val: 1
      }
    }
  }
}
node {
  name: "sequential_1/lstm_1/zeros/packed/1"
  op: "Const"
  attr {
    key: "dtype"
    value {
      type: DT_INT32
    }
  }
  attr {
    key: "value"
    value {
      tensor {
        dtype: DT_INT32
        tensor_shape {
        }
        int_val: 32
      }
    }
  }
}
node {
  name: "sequential_1/lstm_1/zeros/Const"
  op: "Const"
  attr {
    key: "dtype"
    value {
      type: DT_FLOAT
    }
  }
  attr {
    key: "value"
    value {
      tensor {
        dtype: DT_FLOAT
        tensor_shape {
        }
      }
    }
  }
}
node {
  name: "sequential_1/lstm_1/PartitionedCall/TensorArrayV2_1/element_shape"
  op: "Const"
  attr {
    key: "dtype"
    value {
      type: DT_INT32
    }
  }
  attr {
    key: "value"
    value {
      tensor {
        dtype: DT_INT32
        tensor_shape {
          dim {
            size: 2
          }
        }
        tensor_content: "\377\377\377\377 \000\000\000"
      }
    }
  }
}
node {
  name: "sequential_1/lstm_1/Read_2/ReadVariableOp/resource"
  op: "Const"
  attr {
    key: "dtype"
    value {
      type: DT_FLOAT
    }
  }
  attr {
    key: "value"
    value {
      tensor {
        dtype: DT_FLOAT
        tensor_shape {
          dim {
            size: 128
          }
        }
        tensor_content: "\225\031\211\2757\270&\275\tN\001\274{K\304\275\223\251j\275iv\021<\215\177\355\274:\273\254\275oC<=\364e.\274|\370S\274C^2=\016\365y\275\300\001\207\275/\312\016<0&\256<\275\254\241\273\2074\030\273\252\276\177=~\313\300\274_\\\177\275\363\017$\274\256?\265\273\261$L\273\" \225<\212\226C\275T\327\377\274\230v\007\275\234\267\237\275Hc\'<\032\230\316;\246\224\340<U\222\202?+3{?\027!y?7E\203?\201\211n?5\033\177?\307F\205?\226\220y?b(\177?\n\302y?\274g\202?v\326\213?N\337\202?\036\301\201?\t\250q?\314Q|?C\242}?\016\375v?A\314z?9\237}?\300jh?\013\014p?\177]w?\325\001\200?\244\355\217?\212\333i?\3461\214?\365\263\206?\212\261j?\277\021t?A\330|?\004Au?\217V\236<\250\360h;G\240Y<\2412\022=\001q?\274UJ\003=\261\005z=<9\231<}v\037<\'g\310\274\325\365\207\275e\027\t:\247}\354\275\316\343\217=N\273\362<\003H\322<u\256\267<\235\216u\275V\253\244\274\010\246\276<]\215[\274\214D\306\275\222\327\234\274\000nx\275]$\302\273\301\003\224=\000\227\237=[\361\004=DE\341;*,\251\273BsX\275}4\013<\215\316\330\275\0246S>O?\021\275jB\001\275m\032\226\274IcC\275\375\025\205\274\225\207\354\275g\233\354\275l\267\314;\264\2456=\213\003\224\274\232vX=\351.A\275,\210\204\275|Q^<\267\231q\275\026p\337;\024B\316=\016\025\313;\357x\031\275\210*b\275\304\272\030\275;\320\000\274G\314\323=\3141\223\275z\005\"\275\020\201\005=\230\200\315\275\007\017\315\274\330\300\017\275\364\242\275\274"
      }
    }
  }
}
node {
  name: "sequential_1/lstm_1/Read_1/ReadVariableOp/resource"
  op: "Const"
  attr {
    key: "dtype"
    value {
      type: DT_FLOAT
    }
  }
  attr {
    key: "value"
    value {
      tensor {
        dtype: DT_FLOAT
        tensor_shape {
          dim {
            size: 32
          }
          dim {
            size: 128
          }
        }
        tensor_content: "#\342\016\276\330\313\n= BD\274\247\317\037\276\212G =\3023\003\275\033\245\025\2759\2522\276z\376I>\377\r\244=\222\007,=@8\254\275\362\362\005\276\240\350|\270\353q\\:\264\355\222\275\350\345\201=&\021\220=R\002\342\275[\277r\275\t\205(=\371f<=>\001%\276\247\033m<\243^S\276\325\234\236=l\362\375=\257z\322\275u\377\370;\260|\215\275\004\233s=\270\025\277\270,\036\351\273\231p\226\275\025\321\311\275o\366\003>*\342\322\275\346.\215\275\311\267\273=qwV= \266D\275\345\025\220=\3503-\2734^\013>\201V#\274Iz\265\273\323\203\261\275\304\240\213\276\241\275\263\275f\202l=\244\345\275\2751\262(=\352\030\017\2766\321i=\257\2120=G\374\n\275}\207\242=\017E\253<\216\245\215=\331\261\304=G\006\026=F\347Y<[E\014\276\344I1=\321v\250\274\372\324O\276\t\336\223\276>\367\335=%\341+\276;\242\217\274\320=\016>\216\315\363=\213\331\214\275\033`\244<+\366\037\276\224\301!=\243\260n=\266\307F>?\246\314<u\377\013=\245H\334\275\305\344\203\275\177\323\247\274\254\316\025\2763\214\021\275<49\276 s\365\275$\242 \276\350\275\275<J=\t>R}\024<\215/%>$~r\275\220N\332;\302\216_<\302\330d=\364\2603\276ey\237>D\335H\275q5+\275\243\377\343=\371~\361=\275h\270=\373T\326\275B[\201\275\251\370I;%\2364=%\321\333\274\333\317H\275\035\363\212<\354J\006>sg\177>;\243\022\276_\325\376\274\350{J\274\264I9=\203c\006\276\377\275\005>\205ZV=\330z\020=\2272\257\275\035\313\367<\214c{<Q-\231=\023\257{=\206\216\366<t@A>\372\273_\274\326\335\\\274\264G\'\274\'\201\305\275|\002\013=\241\214O\273]\014\t=h\347\252\275\203\033\230\275g\251p>\366\003\373\275\234\013\200\276\372\231\353<\023g)\276-\254\254\275\014\216\200=\300\200\030=O\277\276\275\265]\005=j3\005;\233S\013\275\253\332%>\366$\013\275\311\214\020=-Q\244\273\347\235\025=\212\257&=\365\333\202\275\234\302\037\276\006\342&\275\270Y.>J\202\306\275L\313\365=\3128 =\r\033\260=+V\206\275\322\023\t\276l\220u\275s\371a=\016\275+>\223[\234\274\235\226\244=\243\370\204\276\022R\000>~\264;=\226\304\203\275!j=\275\270\237/>\030\304\333\275\276Z\243\273\2376\345\274\227\025\327;\302\010:>\202t\"\276\03184=\232\3173\276\034[\"=\364\264\366\275\362\201\352=>CX\274\325\234\203\275E\334\315\274:\021\250=C\267\332\275\231Q\277=\3075\302\275\trz\276V\327\327=S\002\252\275\210\375.==QO\276D\374\363=\264\262\033\276)\367\270\275\231\262L=\217\020\013=\362]\t>q\334\250\275d\332!>\227\036->bE\252\275\340\334,=\366aD<\205\377\201>$\336\251=\237\034\244<\302\224T\276D+F<\337\372R=\307V\'\276\365\323\017\276\020\264\206=\221\367\364\275\312$\221=t#\270\275*\003(\276\274Sr\2720\276_\276\303\376M>O\371\t=.\3133>Y\367\030\275-\317\335<\0271M>\017\205\246=\230\005T>\3747B\276\207#\n>3\254\241\274\340\017\201=\364\270\325\274\203\310\305=\302\333\342\274b\021\232=\275\362B\275}u\342=\344\207\214>\014\312\334\275Jw\206=\253\032U\275\230O\003>\340\020!=\237\312L\276\245\317#\276\037\"5=\207\271\335\275d\207\322\275X\235:\275~\274u=T\344+\276\023\3420\274\265Mn\273\007\237\325\275\213\213\">d;\217=\030\355\023\276\357\007W\275bq\203=\200\216\350\274\267\301\270\275wf\333\275\370V\303\276\251.%\276\277\311\006>V;\264\274\376q/\275\206$n=:\221\307=\360c\202\275-1\006\275\3177\307\274\0235\013>W\237\237=\221@\326\2755Z?>\340\023W=u\'\201\276\r\345\234\275\231\"\321=\306\354\260=\267\303\262\274\341\350\247\276\342o\247=ebY=;\225\023\276\261\266E=\233s%>$\027L\276.!f\274\244\240\323=\0232\230\275\260\371\215>\224\233\341=\304\303\265\275\376\211O<\264\333E>\021Z\353=\324\343>\275}\375->\\=\245<\201o\035\275\033RF\276RDo\276\250~\000>\266\305\313=\224\272-=b\203\022>\021\244\021\276:@K\275Ia\331\275\204[\374\273\262\337\300=\201\225\027\276\367\302\224\274\022H\245<]\023%\276ay\356=\367\226\001>\023^W=\300\314\245\2740\037\304=:\312H>\220C\325<\2677\342<\320}\247=\2062\304\275U\214\324<\315\274\313=\033t\t\276\270d\212<+\025f>]\235\346\275\337\252\316\274\237.-\275<\305\303\275\374\260:>Fo\344=\227\014\274\275\020LT;\361\362J=8\206$\274g4L\276\t1S\276R\006\357<4!\354<P+\226\276\364\314\243>\316\322h=\032\371\203\275\241\326f\275[\212\245\275\325\010\320\275uZ\305\275\333}\302<\327\362\311=\032+\341=4\244@\276\215\245O>\227\371\364\274\330Is>\362:\236\274\252\312\002\272\t\331\256>\250n\231>\246u&\276jo\030\276\314\360\333\275\355R\311=u[,\275\340\201I>/\247\267=\204\243P\273&\246\314\274^e\254=\025*\223<\000X\246\275A\035\020>\360\333\010<\014\317V=\276\250\r>f\242\244=es\213\275\250\224\364\276>\232\214=A*)\2752\273\270<\266Z\213<5\235\214\275\235\371\005\276=\227*\276D7\376=\220R\234<;\261k<ag\267=\342\200\263\274\335\3170\276\264\312\202\275`\244T>Y)\027=\232*v<\344a\263=L3\202\276\241f\302=\251\320\267=\366\263S=I~\223=\235\222\363\273VT\300=\203\371~\276a\240\355=\017\323\203\275\301\225\325\274p\\i=K6\016\276\001\352\215\276\356\315`\276$\257\027\275\037\305\245\2750\020`>I\253]>\3203\206\275\207\302#>&:a=?\302T>\377+\267<\255}\261\275C\020\035=i\205t=q\344\016=\221\240\223<dSm> GC\275X\006\313<6\001\217\2753N\363\2756\342Q\275s\005\240\274\272\371Y=\321S\"\276\333\270\273=W\317\010=\003\276t>~\247\034> \252\210\274\344H\263= \030\r=\344\352\032=\256T\204=\\\037\275\274\243I\226=tRS<O\361f\275%\323\316=\312\335\373\275\336\236^\276\342\362\245\275=\304\360<\376\302\345=\302\332\253;\224\353\220\276\345r#=0\374\245=\315\003\216<\n\210\273\273\335\020V\276r\267\313<\246=Q<\345\005\332\275cf\177=\224~\350\2752*\345<9\214H=mU>\275\307\311\204=v\277\006;(7\356\275\242N\214=\316\372+\276+\216\235\276\377y\210>\344\354\227\275\373vP>\361n?\274bZ9>\227[\303<\245a\005\273\026\355\024\275\234bw\276\236\361\255\275\017\205\214=a\360\031\275`\310\027\276\377]\031>ZsL>\307SW\275\247IN\275\224\234\346<\315X\242=\246\200\006\276\311\340\266\275PW\303\275\233r\352\275\346\"\025\276O\320\211\273\344\025\243\275\377\370\315\274A\307\255\274z\373\001=d@z\275\3700\301=\374\351+>\014n:<\207\335\004>\032\257\210\275\301\265\021>\276\322\334\276n3-\275\263\353(>\r\351\211\275\251\2271\276G\234\216<\312(\264=GQ\350=A\017\033\275G\361\255=\265D\261=H\233\220\275 \005\030>Z\023\204=;+U\275\277\024\213=\021\020(\275J`<>\316\362Z\276\237\262Y>\212k?\276\222\216\326\274i\333\355\274 Q\275\274\037\261\031>\314\016\374=XF\304\275cp\214\2756\345\t=\232]\336=:\312\036=\"\246l=eu\323\275\250\333\r<\234\272\324\275\366p.>i\261\251\274\335&\035=\214)\n>T\374\325<\353D\333=h\351\036\276p\220\254=d\001\263\274\032k\240\275X\343\r>j\331\273<\247\333\316\274s\270D\276\321\026\'>Z3\262\274Brk=\341\237o\275S\034\247=\253C\225=\205-\246\275\233\321L=\365\272t\275\0012\304\275\nr\240\275\3657d\274\246\377\213;Aw`<\277\300\000\276\006w\215\272\266\035\333\273$[+>$\371\010\275\250tj>\252\271\r=\336D\354:y\241\007=>\335\016=\342\234V=5Sv=p\226,<\033.\021={\014\353=\307\025s=.\251\355\274\214yg\276\ta\002\276$\014\360\275\201,h=\250\025T\274\220\214\271=\022\342p\2751\243\371;\277e\320=7A\377;\233\013\232=f\031\245=\302\026\225\27535\223=Y\301\347=\177\026L= \221\036=u\261\013\2765B\225\275\034\355.\275\205\356\002\276\313\273\024=\345\313\316\275\263\264\266<a\206\344\275$\354\206\275\333\266\364<\035P\312;\372BB>\327\357\270=t\214\224> \203\317=\200\034d\276Mi\266=\347\365\250=\3661\263\275W}$9_\351\005<\317\313\030>\300\353\256\275*\203!>\301q\">Z\373\252=\021\006\375\273R\234h<\345~\322\275\374v\200\275\256O:<\304\326\003>\374_\031\275\"\253K>\254\314\350=\227\362\303\275\202\271\267=|C\000\275F\360\314=\370\267\r\274%TV=\021\237\247\275!\177\311\275\317\n\231\275-\355\030\275B6i=\210\213*\275\317\3566=\352\013\232<\332\006*\273e\352d\276\033\316\032\275\032\n\237=\237b\345\275\\;\310<\325\356\352\274\310\346\227>\030$H\272\353\315\243=\362\277w\275\026A\021=\277\001p<t\262\013\276\2349\271:l\355\203\275\222\221\333=\010\345\326>\250/i>>\322I=\272\007\036\275\264N\032\276\227\334\226\275\254\245\216\274\022\205\325\275K\' =+.\033=1\344t\275?\033h=t\377R\276\377\302\352\275\270\250\361\274%*Z\273N\206\257\275>\277*<{\313\t\276dh\363\271\370Y\220=\367K*>\323yY\275Y\371\326\274\t\035\025\275\002l\360\275m\317\262<v\373\324<!\263\212\275\263A\343=\3667\247\274/ (\275NRO<b_~\275\003\352\360=\323\376\333\275\026\003\364\274W\227\005\2754\306\r=\201\250\253\275\262\025\215\275\217\362\221=\233D\020\276IA\213=x\000\240\272\241\310-\275dT\227\274B\347\322=l2\266\274\254\334*=E~!=\n!\322\275\034!\022>M\313k;\020]\361=\327\020\017>\201\000\r>\212y\343\275\353\203\\=\350\367\207\275u|+\275C\375\250\276\177\223\016\273c\345\366=\240\372`>\326\200\377<\225\337\345=\263\341\t>\224\230\332\274\016\231\006\276\n$\312<\220\307\304\275Vu\257=)\234I\275\265\203\024\275\202\207\323=\rM\346\275\036|Y>\2467\256<J\277(\276hM\207\273/,\260=XZ]=\031\206O:k\2016>\311fG\275\214\335\264<\251m\361\275\013\216\345\275\000k\276=\331\300\336=\312\301s\275&[&>3\364\006>\201\270\003==\003\003\276Q\024\335\275\332\267\014\273\016!\272\275\332\303\313\275\'R3\275\310\037\033\275\340\263\010><\314\202\275\240+\351\273\253\350\031\276\010\037\t\275a\361\212<\033\264\306<;.\351=\245\210$=\257\254!=\372m\223\276?\362-\276\240\257\324<\206\355>\273\247\r\327=LEl\276\300\307\017=\254R\267=\031\031C\276*\347`\275a\312\346=MO\007\276\340\271\311\275\217c\t=\001a\350<\214#V\275\312n\225=%\254\304\274\342\337\244\274\274\221\200\2748\316\222\276\204eA\275\2041\377\2740\342\327\275\274\250/\276\337\0041\275\026<\001>\255\356B<<\247\365\274n\352\n>\264\031o<\032\000\355=\301\033B\2760\373p\275q\017\223=K\333P>%Y\035>N\347+=\264\2359>\301\013\200<L\3527>P\304\351\275\270\266\001\276\362Q\033=!5\005=\265{o\276\226\340\216;\034\201\224\274\342\267\271\275!\367\231\275\315T\267\274\023\362\224=1D\264=\361\200\204=aT\006\276\177\232\235\274Y\316/=\306\324@\275\036\000\221\275\236\207\240\275(\256\302<\325\356\251=\262\277\010>\312m\255\275\210[\201<E4L=\022\265\327=\250rV\276\333A/>\346;?\276\315\205U=0\363\357=\236\202\331\274I\000\352<\022T\242\275\312\026\t=o\270\222>h\3706=\317\330\220\276\374\245\360=y\230{<\202B\325=\312\235m>\363\000\261\275^=\350=U\354\303=$\014\232=\037PD\273\031p\202\275;\274\352\275O\244\022>Q\032\025\276\337\314\307\275Cz\307=\350TW=\177\021\030>Ce\000>\325\013w=\362?\211\275\313\302\276=nT1\275\234B\316\275\374\242\330=\243`\303\275\026\023$<\260\rt=\325Q\030>#.I\275\r\272\235\274\347\201\003>o\271<\276\314u-\275\315\'\343=\363\177\n>T\246\266=\366\262\220=\206FR>/(R\274\350&\237<\20436>\212}\031<\271\017\274<\230\327\333\274\031\036\023>\242\027\314=Wa\301\274\232i\265\2753R\n;\324\201W\275\021\360\254\275x\325\367=\352B\236\275>\006k\273Z\354\r\276Q\277\267<\204q\367\274\312\347\233\274\024)E<\234\025[\275ps\256\275\242\327]\276y\"{=\262\376$\274e\275\267\275\255\216\245\275\262\230@>w\344B\275;G\373<\213\036\241\275[\264H>\357@\251=9)\272\275\034z\260\274-*g>z7\274=\327\276{\275\030~+=4\n}\272Y\031\227\275\347\0226\275K\007\216=\355\2609\275\365\227\004>^`p<.Q+\275\336P\020\275\306nV>\357t\314\275j\200\027\2750\213\244=\200\000\255;\370\317y=O\275a>c\244\270=\313\353\320\275\036\003\'=>\223A=\"7\032>9\316\263<ws\275<\342[\311\274xC\035\276\031\336(\276\320\300\313\275y@\024\276h:\374\275\027,8>\230\320\270\275I\326^\276L(\277;\223\234\216\275E`L=\370\014\305\275\\*\232=\342\306\247<\275b\022\275\\%F\275\301#:=+\361\"\276T!]=\334\343\342\274}\327\020\276\221\244\001\275%1\212\276\237^n;_%\006\276\206@\362\275C\207\366\274uq\245\274\343\313\354\275\272\221\t\2757\374N\276\330V\247\275N\312{=\227\367\365=\207\364\204\274\354\377U\275\332/\262\274HS >|{M;\033\023\004\276\363\214\217=\257\024S\276\227QE=\277\261E\274\336J\250\275\216D7\275\250\270\244=\327\233\373=\000(\231\265\345\035\024\275q\372\301\275F\317\376=\232V\230\275lm<\275\317\3475\275J\021\332=\274k\202<c\264\222=<\232f\276\330\272[=\026\332l>\272\310J;\023\376o=\366\335\016>DWF=\337\337\306\274\315\250\352\2754\377\246\275\035\266?\276_\031\315<@\356\224<\276\3640\273\036\214s>4\025\316;\373k[=\004\031F\274\314\234\r;_>\366\273\314\221\007\276\362\330\240>\342\017\230;h\361\302\275Z\332\340\274i\324.\275y\244\002\274V5q=\024c1<\222\257\031=\370y\035\275\273\362\252=\333\332\257=t\006\271=\003\333\336=[\003\220\275\350j\255=V+;>\010\035\302\275\237\032\376=\026\217\035\275\001W%>\370\326\230\275\t\334\027\276pvG\276\357\ng=\313\252\312=\236\237\241=\r\276)>\003\301\266\275\317Go=)uZ<6F\315=\231\355\353<\263\224\232<+0\245\275*R\272\273\327\274\306=\340\020\014>\220k\360={\341\274\275\320\300\017\276\275ir\275\227O\303=\272\244\304\275Q\r\221\275\335\277\017\276\276|\327\274`\236M\276\207\341\303=\206F\236<\237\267\217=\t/\254\274.\244\220<\251\022\255<i\201\324\275\"\013g>\032\377\344\274@\361\254\274\353\327\r\276r\017\240>\240\016\327=\274j\030=J\341}=\267\234\313=\234\350\001>\035\344]=F\310/>\333\233\327\274\363~\232=KF\323\275\302\263\027>\203\364\204>A\275\354\275\177\211\022>\006\2471\276\202\347I\276\372f\354=\022\310\310\275-\352\315\274\376\225\322=\371\334\302=Yo1\276\036V2\276\201\"\'=\226\365\347=\261\t\303=4\354,\271\034\010\314=wf\004>\376 (\275(\331;>\242\035M>\262\206\222=Me\375\275(\272\275=H\001\007\275\"p\371=\363\0008\276)\275\034\275\177]O\275+\251\224<2\312\371<v;\r\275\030n\221=^@\327=\264o.<\311#\000=\320A\026\276h\031\213\274\213\031\211=\244A\310<\344\233g>h\345\210\276+\253/\275\340\270\231=\254rt>\254\206\010\275\227RT\275\216\221\347\275\214G\353\274f\005\237\275\307\306V\276Y\325W>\214\325U>a\301\270=\373/\310=q-\323\275\324@A\276\032n\257=O\212\023\2769\234\320=\n;&\274LF\027\275\226F\231\276\345\010\276<\317\224$=\215`)\276D\362J\275\026\310$=`\260\027\275\002\354\245\275L\317\001>\372\213\010\276\334\217\t>\275\356\357\275\366\002`=\376\333\t\274\260\005\204\275\353\366\025\275|\022\021\275\004m2=\225\346\273\273(4v\275\010V\254\275\013\267\034>\003\212$=1\376 <\305\022\233\275bA\370\274d\225\262=\214\224\272<XNJ=d\325h\275\\8m>\376\007u>Y\320\217;/x/=\372\002\005\276\362/X=\305\310\240\274\213#\246=\271\3008\275\3324p=;\221\361\275\262\240\236\275\236\345\373\275\025\275N=\020\262<\2754\200p<\320\252\260\275=\337\007\276.#@\2760\252\377\275dfB\275U\352\347\275~_\004>\266\310\326\276\327\301\215<HF\350=&\316\177=O\243n=\277\026\215>\260\006\020> \343U\276,]\317=\231E\260=\235\0102\275&_\034>\221\310N=\273\343 =g?\231=\020\274x>)f\337\274W`M\276\212q\025\275 ];>=4\020\276\347u\226=\251\215\014=\034gG>!pO=\3607\022\276i\276\006\276v]\t\276\224,Q\275\263H\002\276\032g\347\274\307V\014\275/J\006>\204=S=Po$>/\336\360=\361<\336\275\347\316\231\274\201\310\305=\346\031f=\256\307P\275\225CR>\317@2>\354\355\t\276X\220\202\274ocI=\213\316/=\333\031\005\275\010\317\344=6T\311=#\375\364=\311xz\275\226 \277\275\023\346\373\274\222X\202\275\353*$<\254\334\332\275v9!\276\363\016\223<(H\266>-yC\276\2579\005=k%\016\275$h\355\275\177\031F\276N\3350\276\347q\234\274E\363\225=\022+\360<C\263v=\322\324I>{\247c\275>\371\325:\016\302,\273\326h\223<\021\n&\276\304I:>\022\003~\275\032#\000<\273\322\213\276\376\010z>!\230\262=n+\215>#\201\321<5\330\036\276d\033\027\276\304\337\326\2746|\364\2742\314\r>g@\032\275\243F\033\276u\347\301<\363l\014\275j\201&>\333\260\021\276\013\024\n\275;+\257\275\375\360&<\227\353#<\265\342\\\275\340\243W\276\307\027j\275\361\256\217>\3554 \276\315\252\224\275\367\327\'\276lN0\275\021\377*>x\337\273\274o\036\217\275W\313\312\275\302\014.\2759r\031>@}V\276b\320,=\200*\233=^\034\335=\336+m=\255\376g=\270\014*\276_\362\213\275^\214\252\275Uy\347\272\221\340/=\270\177\273\275k79=#\377\016>\326\005}=\324\306d\275(\036Y=\3340H\276\2434t=\267\364\335<C%\t\276\235\301j>OO\251\275;}\">le\277<\31268>\367\311\252\275\257\303?=\022\027\025<0\024M=E;$\276\005\272Q>\202\026\307=gn1>\251U\222\276w\211\235\275\313\250I\276q\270H=,\233w\273)\321\">V\313\251\274\036\246\374\275X\215\004\274\3271\026\2756r\216=\373+\342=oH:>\224\212i\274\275~]\274\220\266\373\274\2765\035\276_\320\243\275\220$\332=\321\257\021>\202Q\374=v4\362=\261\005I>\232\014\021:BYZ=\267\305\246\274\001v\223=7\336o=!;S=\2241z\275KU\344\275$\237y>\233\0060>iA\217=\013\313\306<R!\245>\223\226\364=\237a\375\275\034\237P=\237\222<\275\203\344(>\257\217~>\373\321\215\275\225\220\002\276\244\253T\2755\354-;\374\021y=\304\375\254\275[\373\321\275\377\375@>\004\034\020=\026\305\"\275\262U\004\276\032E$\276\2574v=\301\004V\276\253\024\250=>\335\352=8\344\375=\261\216F\275l\355\362\2745\007,\276\0317\346\275\251gH>\331\227\361=7\203\355=\206\270\024>&\320\266\273yH$=\255\264\266\275}\026[=\261G\021>\214\243\302<\202\312>\275\276g\036\275\312U\260\274~D\210=\267\234\374\275\363\316\253>cX\267\275k\237\335=\017\355\225=\320P\360=`\331y=\0277n\273}\225O\274\216XI=\373\r\306\275>\240\217\275\324-d>)P+=46\371\275\250\344\344=\000\001\317=,\346\252<\237\263[\275\013\031\343<\370\022\270\274\324h\010>\311\330\345\275Y\227\312=\313\013\203\274\302\032\224\276&wA>\251\240\330=\022>\315=\254\367*=V\240\206\276\263\'v=\203\257|<\304\274:\276\216\003\376=\231\262<>\236\"1<\211\327\333\275\274.{\275\342\3265=\03060=\275\216.>B?`>\033\001E\276\355\375\325=\310?\276=\032\255H=jS\313\275\217\250\346\274\035\340I\275\\\277t>6\2728>\317!\206=\206\214\347\275\314[\014\275)\206S\2757\022\230\274\323!\305=\nZQ\273_\031\334=Lc\366\273\341\3604\275\235L^\275m\2462>\337\207\\\276\200\357t=\357W|\275\205mh>\272\206\251=4\330\242=se\006=t\006\224\275\377L/>\343\016P\276\342\323\347=\342\'a<\276X\037\27580\315=2\327X\274\337C\032>2n\256=\370>\226\274\365\035\245\275\231aI\276\207Lk=\213\374\032\275+o\340\275\245\234B\276\213\231W\275B!\227=\207\335\007>\220\205,;K\374/>\212\316X\276\325I\355\274F\256\375=\317\336\217=\246j\264=J\234.\276\211\305~\275\222Y\263\275\001\350\214\274\264\0265:2\307\312<Ph\007\275\330\263\346=w\276U\275kH\247<j_\232\274\010\026N\275\313^f= \331\211\276\377\330;\276\343\220\323\274\244\215\250\275\007\200\233>\036\354 >\325\017\r=n\036\327\275\333&\'=\274fl\275\0315\271\274\316\t\025\274\337^L=MJ\272>\001\263\200=q\213>>\003B@\276X\353u=8=\n<\347\311\032<\343\ry<I\351u\275<\247\215\275\227\237\304\275\260\020\246\275t\272h=\021?\340=v\243\225\272\035\364\004\275h\000~=\001\204\265\275\253F\270\275{Y\030>\3623\020>\304\313\224\275\263\213R\276\272\233q\275\200\206\003\275\346/\321\274\301\3209>7\017\020>~\371\362=\204\t\220>\236&3\275 R\260=\033\356\365\274\220\006^=\367\353\325\275o\374l\276\200\200l=\217\031\377\274\364\265\201;P\t*=\322\016\377\275\'\261c=\356Sx\276&\206\270=Fk@\275\t\3708\275J`\265\274]\204\237=o\234:>\242a\363=\270\341\342\275B\203^\274o\362\025<}\330\222\276\020\002\220\273\031\213\305\275\251\232\322\275=\366\223\275\335\232\303\275\"#->X\256A<\221\n\346=\363\350\347=\204\207\222=\212\201*=\370\'B\274R\215\366=\030e\252=\306S\020\276\010\304\341\275\'|O;R\251%>[\343[\274\307\014@=:\263\254=\024\375\275=Y\250a\276\001\222\265=:\356]>Wz\220\275\265\355\311>Jg\335=.-u=-ws\275\030\236\331\274\003\314\220\270\320\254t\275O\330\263=*#\200\274\253j(<\201\204\265=B\360\350\275\271\234\347\275\246\3538\274\217\250\342=f\010\225=(\346,\275\256\204W\275\202\200\375\274\000/\304=\364\245->[as=\027\025\341\275\250\235\027\275k\2403=\r\314D;\355\306@=\340w\310\275m]x=\324f\347<jb\210>\005:\"\276\307\001\001:\214;\245=\244!\025>\214\323H=\241v0>o\370\363\275KX\367\275[4\032=\371Y2\276+\345G=\302W(>\030^\221\276\247^\213=V\332\260:]\004g>\237\257\212\275x-\266\275\251C\243=&\322\347\275\334\366\005=\241|\007>\334\247/=e\225\362=\002/\302=f\000I=F?\211\274\024\2302\2769\345P\276MAn\276 &+>\331\374\033=\305R\005\276\200\037\013\276\321\247G\276p&\236=v\332\021=\245\340q>l\007*\274Y\277!\276w\216\033>R\"?\276\341E\002\276I\231\326=\273\335m\275BOJ\275\360W\306=C\033M=\2039\204=\377\006\270\275\020\3076>We?=yh]\275Q\235\257<\277\334t=\006|\343=^*\000\275\013&\\=\267\030\262\275=a\262\275<\005\251=\213\215\002>\001\301\243\275\216k\252>Q\342V=U\002\n=\232\\L\275\331\340\024>\n\264\222\275\215\316v=\321\037$\2763\365x\276\210\304\000=-\262\004\275\302\017\316\275 \177\334=6\210\035=\255\231]\274\001\255\307<j\310\333\275\244G\310=Q\334V=\307\371\205=\023\337>>\270\251\002\276\240\303\274\274\230n\214\275\304\267\021>P\346 =l\376(;g\201-=\"\200w>\342/\204\275={Y<7X\220=\016\032\270\275#\n\036>\356\363\256=w\221v<in\231=\375\3078\275)\002\254\274\210\242U\275\366\001\014\2768\367H=\244\265\203\275B\270\257\275\330\316\213=\325x\t>\034XN=\361\266\213\275\014T\337=P\241\377=\314N\002>%Z\200\275\342R\201=\264\260,\273p\tm\273N\252l=;M<=;\204\032\276v\003\375\275\006\036h\276.\206p>\346zc=\001\3604\274\375\016s\276\336S#<\355\241\322\275u\314\352\275\025_H=q\360(\276qt\302<\206\331S\276`MU\276^X\211\276b\303\261=\271\334%>z.\377=\303\253\240=@\201\3229\353P\231\275\270A\247=p\225\367\273\331\342\214= \303\353=\207)z=B\031\334<@\220\034\2752l\344\275\246\\\362=\363\023\303\275\3767\230\274\216\320\006\276\n\355\335=\267\272\240\273\257W\325=\347\3532\276cY-\276,$`\275\337\300\276\275YY\226<\346\234\361\274(\014\331=i\226\366;v}\n>J\375S>\243\305\240\274\206\236\327\275Y\2524\276\204\022\367\275N<Y=L\200)=\350\315\364\274=;\t>\271H%>\317L\254\275\251\016\016\276pq\266=M&,\276\274gn\275\246\035\034\276\033\346\n\276\354\235D\276uc\t=\276\2354\275\014\005H=\274\340\231>\3043%>\343\335\226\275\031\276\233\275\236bD\276]\250\013\275\230,\211=nb}>\245\223\023\275\000\201\210\275\337F\343\275\2157\034\276\207\002E\276\344\331\250;\351M\207>c\266\320\275&Y\005\275)%\204=\226kj=\323\343\346\275\223\231\316\275\305\036\241\275\037\237\343=tIj\275z\361\222=\321C\344=ZWB=\361\270\331\275\365\2375\275\266E\\=  \263\271\034\214!=N@V=\3669\000=\215\356Z\276$\017\013\275\301\371\355<! \233:?\222y>bhq=\315\001*\276\270\321\341\275\361H\n\274\266\330b\276\021\253?\276\324\2675>Fh\007\276\014\027\210>B\3245>\025H\341\275\013\353\317<\313\3456<\324F\215=\331\346\243\2745\363\307\274\256W\010\276;\266\323;`\360\"\276\032\027\351\276\002\366F<\003\016\276\275\035\300\244\275\306\277I=q7j=<\310\312\275\223B\214\275\n\005\216\275V7\024\274*\270\017>\034A/\276nM\021<\270\013Z>\3765 \275\n:K\275M\025=>\016\2079\275\250\365\023\276\330\325b>\036\277J\273[4\307\275\334\264<>\247\316i\276v\236*\276nYD\276I\374\364\275R\213\204\2754jY\275\214\203\267\275\342\366t\274\r\251\001>\343\302\355\2757\373\003>XU\236\273\375\273\205\275\t]\003>\"\177\323<\333*\340<\324\220\317<\210\333\224=d\373\265\274\235>\305\275\371\327]<\347\377s\273\001\272\223= ^\026=\345L\365<\265`\213>:\205\343\275F\200\200>|9\222=cC\227\275o\341\033\276\335\220\263\275(u\233<\345i\233\275\201\244\007\274I\275\261=\35682\276\224\274%\276Jp\272\276\365\021\232<\374q\240\275\335\206Y;\360\302\254\274\210\260\334;\332\322\311<7\322\322\275\375\036\034>\301\342S\275\300\334}\274\030\021\347\275\004\202\232<Q\3323\276\256g\305<94\205=\312\342\373\275~m\232\275\342PG>fr\367=C\217\247\274w\245\235;M\037\276=M{\002\276\321:\345=\021@\215\274\036Z$\276\267L\033\276k\330\325=i\364N\274\223]\214\273\367\3238\2751t\331\275/\324Y>\252\001\000\275\014\237\234<;a_\275\r\002X>\214JM>\212\313\307=\200\332.\275\243\353,>\215S\020\275\200*/\276\031\226\244<G\034\223=\3706V\27414>=\243\300\024>\270@\253=4\034\231>^\356\362=O\274\037\276\241+w\276\226U\343=\235\'k<\036m\222=}\354\302=K\264\250\274c\221\013\275\361\377\242\275\272\350\204=7L\\>b\014\230<[\255n\274\316\006\213\275\321-x\276\215G\300\274\202\227\207>\317\221\'\275^\217\372\274#\325\347\273<\037\037\274\314u\022>\246\r\027>\262\353\220=P\203\005>P\240\332<\022\311\333=\tv\353\275k\371.\276\327!\177>\243\325\022\275\317N\013\276\021(=\276=5\245\276\003\244\021\275\245\210~<\346\236[=,\326\333\273\314M\363\274\303\307\312\271\t|\312\275\227\273H<OV\223\275\016v!\276\033\362\256\275\224Q\247\275\006I\242\275\027\312\231>\267N\352=|\3420<\026\035\037\276\014R\334<\203EA=&\315\361=>\300\305<\204>h\275\332X\363=^\311\223>&\2154\275\0316\023\2768[?>U}\331=/@\215\276g\323\016>Q$\331\275b}\224\274\266\005:\276\371^\260;\241\274?\276\020\026\207=\204\232\210<\n\216/\275\312^\233=\353\204\033>\3766\370\275\221\013\021\276\336l6=\337\364\370\274W\245\355\275$h\020\276\274\002t\275%\230\210\275X\267\024\273\002\234t>f\373@=4\372i>\t\314!=6J\027\275\325_\301\274^\215\230\272\'J\243\274dKX\276\273W\263\275JPW>\351f\240=\265\370\013=]\316\030\276\033 ?>\230 \331<;\357\342=\332\307\353\275\361\230^=0\224J\274P\030L\275\301\362\242=Q\003\320\274\016E\334<\035\002y=\325`(\275\371\027\003>Sn\360<\326\222D=\274\351\353;J\234\262\273\241\231F\275\220\3674=\220\352\026\276\252\243\310\274\257H\022=A\022\013>\244\037\321\275\324Rh\276J\346\207=\304\356`<^\177\342\275\031?\010=\376\232\231;I\016W\274\321\360\001>\256H;\273r\356\226\276c38\2755\303\230=\025\260*\276\241\035\351\274\322{8;\372\224\236\271\034\254.>\355\377%\276I\014\242=q&\007\276\326q\253\275i\031\335\275\370\355\016>F\032F;s\277\273=\006\236F>\361\022%\276\325^\213>\366\020^\275\356z\312\276\352\nC<L\363\003\276\214\330G>\334\253A>\231hv<%\365@=vq\200>1,\337\275\036\246\004>\271@]\275\350E\307\275\260\004\367\275 W\276<\225\0219=\036;\234=\0050\000\276B\021\334\275\365)\202=\264\241K>\322xU\276\345\260\215>\020\342\342\275!\265\340=\205=\305\275\265\210O\275\363F+>]g\274\275\025\221\312=\021p\216=\311\033\033>W\030\t\274=n\025\276\307\212\340\274\262\311r\276<\215a>Bc\006\274\327\212\331\275d!\323\274\303\316\245<i\242\226\275u\2419\275\367\246p>m8\322\275\n_\026\274{\206\352=H\031\202\2769h\320\272\217\221A;\216\3632\276\035\223\274=x\323\007=cOD>QU\222=\337C\355\274t\355g\274\306$\006=$\253\006\2765U\235=LzN;J\313\n\276\031Q\334\274_\211b>\r\216\306\276w\'\021\276uZu=\234$\360=O\265m<o9\372;\003k\300=\200\266h=z\373B<\226C\000\275\363\273\365;\217\347-\275XZ\265=\310\302\"\276\035S\332=\375\024\331\275\231\3072\275\361\305W\276\326e\274<\313\243n\274\270\304\332=7\342\377\275\356\245\200\274\014tF<0\230b<\035\205t\275O\303\033\276Y\036\013>\2263\022>(\253\360=H\370\211=-\rF>\032\301\007\276A\336\240>mg\006\275-V\300=\244\242\203\275\310\002\237=\356\nR\275\345E2=\352\017\357=\027\306\307=Yo\010=5\247s=}_\r\276\302w\017\275\025/%>>o\177\275\331!\316=\"L\017\276\374\033\353=_|\340<\216\254A=\234\323\014\275\304s\030=O\362\253<\320\033\003=\3708\371=\\\205\'\2753\333\364=a\326\235>\315\247\272\273\256\367\">:\025\215=\217}\241=-\2008>\251\200\244:M9\037>\361\323%<](\237\274\234\202\377\274\306:z>\337h\220\271\376\211\320>\362\201\310\274Q\341\264\2747\014\217\276\234U\234\273\246\210\212=N\030?=\343\rG>:\322*\276m\006\000>}\304#<\300\305s\276&\204<>\310\003\311<\315\027\031=\177\"\002<\273\300/\276\234\245\"\275\220\275W\2742\231\242=RL\242=\0210\032>\'\236\007>-,\025>\013<\254=\334W\023={\346\205>TI\276=\375Y_=\206\320\212=\353\344\266\276\265\014-\275\r\\2>u\276\204<\276\367\341=\302`y\275\363\321\204=M\274X\276(\323D\276\226\223\025\275c7 \275^\033\363\275\0357\027>,\214\363=j\225\363=cx\220\274y\345@>G#>\276x\000d\276/Q\272\2755M\231=2?M\274\211!\001\275o\276\253\276\033\356\330\275\304MB\275\225\323\204\275\023\177\032\273\224#\214>eU\220\275\177&\252=,\227\233\275T\034<>\034\311G=\027\344P=\3778\324=\021cM\275\177\246\262\275+\211\016\276\213\023Q=\362\201\250<\301n\r>\373!0\275\343\353\353=eo\r\275\324\023\365\275\024\334\261\275\3141\301\273\031\213{>g\221\'>Hl\272=\351\373\352\275\256\014\215\275u:i:\371\316\216\275\355:\240\275?\364\'\275&\311\242\274\214\235Q>\341\200\267=w\312F\275\251\247\001>\007\340\004>i\270U\275\213\3564>\363\260X;=\266m\274i\177X\275\3272\324\275\313\240\251\274\244\373u=\262\357*\275\243 \314\275$\252\352;.\253A\275\231\024\026=\nQ\377\275|\335\261\275\355a\226=\022a`\275\n\230\202>\240\034\360\274\300N\276=:\211\363\274L\2762\276\361\242i=u\323\307<5\223N>\010\tl\275\317\331d\276x:\217\275\222cW=\335\3320=\t\237\303=\366.\032>\215\367i=\021\014I\275S\370 \274#\252\023\276C\203Z\274\304h\202>\204\206i\274sT\210\274\266\274\374=\350\332 \275]Q\213=\'\036\220=X\361\202<$h\266=\210R\261=\377t(\275\224\365\'<\313v\007>\324\235\037=\214\315k<F|q>\231\013\234=\001\354\372=\016\370\206=\330\230\312=b\235\325\274=\333\230\275\301\374\254=\002A\344=\022\241\n=\227`\304=p4A\275\336\255\214>\225\205\014=5B?\275\336\270@=\316\334,\275JK\013\276r[\242=d\203f\275Cz\307\275\363\373T<[\216q\272\307\360\214\273\330\370L\276C\247\352=b\2036\276\025\274\256<\030R\375\275+0\242=b\3405\275\263d\201=K\037\222=\273\230\022\276\236\027\224\272\007\363\215=\242\013\037\275})\337\275n\345:\274h\\\0358\342o\026\276\372\313\\\2744\254\204\275j\006!>\205\374\027\276\3350P<\030E\010=\201#5\276\205Z\032\275\321\003[>\343\031\313\275\356\204\342\273Oe\350<-\201\200\275L\350\037>;\3507=\374\222\023=N\364\230=\t+\216<@\312\321=\"4\203=\214fs\275-\215\312=|\317y=\316\234\'>\236C\262\275c\311\000\275\371^\226:A\312\341\275\r\213\340;#}\017>\363-\001:0jH\276\274 \365=\265}\223\275fz\000\276\270\264H\276>\205\242=\241f\357\275\264\005F\275u\254\207=8Cb=f\245\363\275\2540\036=\325\3058>`.q\275W\3457\275\004lP>\005\255\201=\010\333\203=\375\036\037\276\035Z\202=\371sa=\322\013\031=\002w\262\271]\016\002=0(\n\276\026\rd\276\203Ca=\021\200N=_\326\210\275\223\257X\275W\320#>C\315]=\311\350\207>\314\277_\275\2525q\275ur\320\275<\323\036=n<-\275\311\257\245=\266\317\0269i\263^\275J^!>/\225\026>9I\004\276>7\343;\013y\024>\317\243(\276\345W\213=\022`\302=\177[L\276\366\251\340\274\021&3\274\225\213\216=y\nT=:g\200;,\333\024>\3600%>\214N:\276\002\302\234\275.\r\017>/\r\253\275\036w\t=#\237\363=\230\316\216=\347t(>&W]>\222\346\351=\236B\034\276^*h\275l\",\275\242\337G\276\020\007\350\273z\3316>W\017\024\276\2526\331=\236\313\357=\371\315\243\275\213\376\215\2752&\032\276\315\202\027\275\253/\263\274\2454\362\274&\033H=+\226\237\275\333\211\376\273L\251\253\275\313\353\312;\344\227\305\273\365\221\323\2751\214R\275x\330,\275l8\263\275\262h@<\226\275%\275\312\tD>a.\306<\210\246\003\276=\002\222=?\211l\276Y\261+\275\331\255\207\276\254C\"=\004o\252=\207P!\275\345\016\322;\2234\263\274\tB\216=\0037+;\241\270\246;\214\027K\276\377\024\006;\211aq=:?P>\201\350\230\275\247_-\276\230H^>\361\323\261\274[\r\020=TV\230\275\212\237\353=|$\">Y\337l\274\"\206\n=\007\346\305= :\375\275\277\351K\276`\341\235\275G\033\023>\326\207\216<\272O#=\360_{\276t\3610\276c\330\026\2746\225\026\274k\326]>\313\224\031>\001\270R\276d|\312=^\215\034<\373\265\353\274\333\336s\274\233sZ\276\305\333\246=U\313\214=\375\356\200\275\2725\010>x\"\361\275\265\337\273=\032\037\240>\r\233\225\275\303\022\327\274e\342\014>\232\315\003=InH=\330d<>b?\265=\013\033\213\275\210\267\217\276\340B\203=N\277\025>\251\311\272\274\2438\356=\027\316d\275\235\236\233\275\260\347_\275&\262\337\275\360$h=x\253\001\276\212\263(\276\370\311\257;\317\363&<5\025x\275\t\260\245\27507\353\275;\035\340=@c)=\031\324\373<\312\010->j^D=\016\246\321=\031\022\245<Z\254M\275\017\264.\274G\221\014\276\021\261F\276:~ >D\3550>\327\341\241;\226F\n=\204n\237\275\240p\307=c\\+>b\024\224\275\035\031\343<-\027\022=\341\222\030\276\266\2222=\221P\214=(}0\276\246gQ=\314\3513=\261D\346=%\036.\276\347?\230\275z\233\'\275\347\363\020\275\261\260g>r\344\370\275\353\211f\275\033\275\261\275\351/\244;C\255\230<\211\253E\275\355!\213:\036\353\225\276\314\266\236\275\237\362k\275T3a=\336\216X\275\302\355\"\276\n\277\310\275.\342L\276\3437&\276Ga\353<\360\242\220\275\317\267\r>\'\216\360\274C\377->{\\\013>FA\003=im ;\243?\r\276V\366\344=\206\316\240=\022\222\332\271~\364\022=\006/\200\275Z5\206\272\006t\352\272Ho\007\276\375/\224<\337\343}>\311;\226=\334\371&<\262\355*\274\321\300\036\276\336\223\362\274\000\021\014\276\356\202\323=\203\260\004>\214VQ\276\352/\374;\316v0>\231\344s\276\252\031\216\275V7\207\275}x\007>\204H\243<l6\343\275_\024[>I\242\331=Y0\361\275\237\211\025\276~\t\336<\261\254\212\276\361\250\356>u\330K\275\346e\277=\316u\261\2749\235U>\033y\226\275\225\213\217\276L\254\374=\n\311_<)%\006\275 Y\321=\305\200\005\276\023G\201\276\257\233\374<%\006\273=\325\324(>u\203\353\274iK\234\275c\323\306\275\177f\036\276\017Lu>b-:<\177\017\262\275Ot\334\275$\225|\275G2\035=&7\366=Zl\233\275i\322)\276\2417X>:\342\022\275\360{p\276y\022\226>\233\016R\276\000P\276\275b\375\201\276J\206\256;\r=\206\276\356\230\002\275\030I\036\274\025q\262\274\022\347\007=u0E\2759\377\366<V\2506\276\1773\363<6!|>\300\365\312;\\\217\036\275\321\230}\2762\360\370=\'R\232=o\316\374=#\177\t=\0257\212=\352\314\030\275\017\260F\275j\230\030=\337@3>\240\377\245=\224\026p\276\023?\225=\375\301\032\276_o%\276\rY\200\274\236K\354\274\260\3040\276W\367\310\273\037}7\275\244\355\260=2\260Z\275\371\2337>\031\301\'\275\336\314*=\244x\t<\t\323\361<\030\343\263=\225E\002\275\320\304\002\274t\273\025>\230\327q<\342\327|>J\034\352=\324\320U=\321n\344>\332\252\204\276\242}\376\273\367\340\233\274\243W\324\275\036\212\364<\006\202\274=\213\363\224<\340\262.\276\373\313x\275\225\222Z\274\032\274\270\275w\021\255\274\304\205\257\275\360\367Y\2738\'D\275~u\023=I<\312\275\275\177\246\275\252\177\215=\355WN\274\333\266\265<\206\366&\275\253\341\002\275cX\033\276mm@=\207\246\'\275t\035\275=\216Jr\276@\314\004\275E\236\027\275\214\342\235\275\356\267x=\217\014\022>\312\272\372\275z\022R<\2138j=\r\331\302==\247\364\275\245\005\016>\340\241\375\275\344\177@\276f\355\364=\360@J\275\332\363\336=\264p\215\275#8g<\254\256\014\276\252\3262<\307G\007\276\377\301\276=l\330d>\212\243\367\274\177\237$\275\221D\266<F Y\274\032\237_<\225)5=\3053U\276\357\2532\276\355JV<I\013\005>\006\343->\354d\210\276\026\003^<o\033\362\273\220\223\003\276gFm>\003\013\263=\321?\003\276\002\275W\276(D\260=\004\306\332\275\247a\220\274L~\014>\365\352U>\247\276@<\014\3300\276S\000C>\377\271\016\2735\331J;O\250\224=\354\260\252\275\034T)>4\177\027\275<\035\215\275\325\021\032\275\270k\321\275\327/\217\276\020\353\013\273\340\261\307=Yd\231\274\253C\302;\373:\233<)\314\216<cN\306\272\025\221\n=\274\327#\275\214v>\276<#q\276U\023\220<Gl]\275\014\3436<n\026\036>*({=^\021\236=\0363\377\275h\335\'\276\244\005\220\275e[\200<$E>=\022\316I=)Y@=\226\326b>\311\341\262\275\331\207g\274ro~\274`\344\230=\336\373\261\273$\216)\276\267?\202\274K\235\233\275-\213G\276\330\355\301<\326\027\224=Q\351\013>\374B6\276\267>)=%c\307<6\251\233=\224\035\276\275\354\211\233=c\206t\275E\223\010\276\305\252\210\274\254\246?>\212xC\273\220\000\374\275y\032\237=\014\030o\275[\n@\276G/=\274\2362\371=\223\242\324\274\221\334\007=]&\326=\344\036\320<\253\310\023\2769\242\224=Gg\301\275ac >\320\375\336\275\316\346\3248\025\370\306\275ZU\007\276-\261r\275\377U\017\275\327\266\222>\363\331\347<\000-\310\275\322o\237\275\021~r\276B4\003>~\377\010>\\\346\331=:\210l;\241\023\341\274W\305u\275\222k\206\274\222\305\363=\362\354\205>\322q\334\275\322\tN>\236\234c\274It\260\275\211\277\210>+\204\177\276/\246\246<x\310,=r\206\033\276\"\372\024=\247\004\205=\373\362\034\276$Y\010>\250k\034=\225\332\206\275\271b\272\275\354\272\337\2742\341g\275\337\302\002\275\327W\220=\276r\005>\374\310;\276a)\007\274\267)\306\275b\'\227\275\031\241\243<yt\335\275C\377[=\275K\035\276H\275I=\372&0>{\024a\276t\271\003\276\301\246\254>o\372\201:{0\020\275\177eO=\'z\034;\036E\337\275\323J@\273\245+\016\276@H>\275)*B\276\232\3111\276\232\202h=9\335H=\253K\024\275X\3568>6\232\006;$\030\321\275\305\361!=\231]\375\274\333\352\372=\320>\007>\343\367\245=4|\214\275\371\253\300=`\3476\276\335\255u\276\201\226T>\010\376[\274i\336A\274\334\270\021\276\305\242\234\275x\025$\275d\304\216=\357\334F\276\026#\343\275m\356-\275c\320.\275]\030\356\275\311\031e=\026n\307=6\032\'\274F\\\215\275\364#\304<\225\nZ>\236[1>\t\370o>d\334\030<\000r\311\275mt`\276\330\372\231=\354\243#\274D\036i\275\214\016P\276t\311O\275C\207_=_\024\350\275\342\026\200\275-\372\007\2763\343\230\275W\367\257\273L\246N\276GD#=l\246L\275\241\3040\275+\267\016>!\207/\275\031\034\t>\353v\330=\334\"\277\273\253\334+\276\275\267\034>\271\2414\274\342\251z=^j\377\275\034\353\311\275\200\303\337=\216\237k\275\304@\377\271rb\217\274\310\373\260\275\200>$=\035cm;\204\2475\27693w\275\236-z\276\360\274\017\276\332L\231<\321s9>k\267k\275\336x\347\275\304)\201>!\306\226=\027fh\276R\037\262=\227\0250>h\334e=\200\223\252<\235k\300\275Y\226\335=\251\022\313<lk\004>y\263\326<w\264\260\275\\\356\243\275\327tX\275?:\217\273%\270;=\345\223{\276\311\t(=\203OV>\2325\022\276\214\003\376\275+f\'\2767\333\037\2764+,\275/S\373\275n\202\020>g=\251\276\302\226-\276%\264\211\275\311};=\332P\002>[\252\270=\350E;\275N\200\265=\224\363\231\275\323\353\016\276L\377\201=,\274\244\273\374q\270\275\256\346\331=\316\025:\275\023\205}=IN\014\275\337\267\216\276\340\022\306<\\\357\314=\002&\240=qJ\261\274yf\032\276\310\366\213;\316D\331\274!\274\232=}\267]=0\'\264=\253\2404\276\303\247k\275\254\014F<\205\243\232\275\2364k\276\033\373\316\275\245>\244>$LN=\2121\003=3N\226>\201\317\037\276\010\232b<\317\224\326\274?\333A\273\334\315\241\2767\022P<\035/P<p\336R\275\177\214#\276\t\257\237=\365,>\275?\356\016=C\372\337=\360\002O\275\2546\317=V\365\344=\217*\034>gL\245\274{\010)=\315\036\314=Z\305D>\345<\320<\253\343\'>\235\237\036=\230\000W\275\327\3652>\004\213F\276\304g\256\276\001\340@\275!\227\220=\355\273\343\274\333\0135>>jY\267h\'r\274\304f\036>\221\255\027\275\032\342{>\244\245W>\005\364\343=7(T\276u\324\352=K\375->\201\032\331\274M\260\226=\027\233f\2759\355\213\2744I==@%Q>_\314\243=\t\014\325<.\231\035=[\214\002\2761V\304\275\236\345\021>\207\202\215\275\252\262\331=n/\311\275\210\t-\275\311\007`\276\333\315\207\275\021\003\224\276\327\006\254\273\217\212/\276\327U\030=\324=\354\274S9\305=\312\r8\275\247R\210=\313n\275\275\266\264\325\276u\022F\276.\306y=WA\n\276*\r\343\2722\347\035\276\r\345\225>\372M\024\276uH\232\275\332_n\275\335\333,>\261\212\027\276\364\t\034;j\030\301=\262\223\021\274\352\016s\276a\275i\275\365i\312=\021\330\326\275\246\347\335;-\034\324=\256\362\266\275?\236T=\024\230\226=$\333\023\276\362\203\r\276\024\334\343;,\345\035\2754\223\226=M\272\200\276I\276\331\275\351\334\235\275\031\337\226\2751B\316\2743\246\372\274\3353\243=\332\033\201\273(\204\014>z/\242>\022\013\334<\356\261(\276\362\261\234\275n\037j<w,\261\275yyv=!v\320\275v\244\010\275\273\217\021>-5\365\275\336L\361=q\320\361\275\303X\320=\013G\034<\372\212\004>\252\0341\276M6\371\275\2004N\274(\250\233<\362\324Z=\003\322\243\274\241\252\225\275\361W\371\275EB&\276\335\016\352=\217\224 \276<\020\r\276\300\260\226>\256mG\275\227\355\246<\223\360\017\275\324\322\000>x\324\003\275\247\003\330\2759C\313\275P;e\276\223\264\254<C\273X;\003\024\327=\210\rW<\333\271\014\276\307\020>=\010\354\031>\223\364\010>\333iM\276\200\334\256\274\301\270y>\267\'\263=\330\213\220<]\326\314\275&$\314\275\233\212\023\276\230\246\026\275(\377!\276\\CP\275\251*W=]\310\317\275c\242\027\276R\364\207\275F\370\202\274\032\3272\276?\257\311=\t\333\277=k\253\325>x\016b\276\240\220?=\356\244i>\223,\377=\350D\033\276\034\367\350:\025\265\212\275<\273x=\354\2102>\313\007\024\275<\207\226=f\324\210<\242\257F\276\021\022\000>\017\022\001\276^\306\365=\314\347\223\275C<Y<\374\276X=.\366\224\274pL\377<g\336\017>\211p>=\314H\355=\207\311\202<\017\341\010\276\274\001\241\275\010\371\214\273\335\333,\273\013\264)>\207\227\032=0\304B=\363\276/>\301.b\276\037\010\253=(i9>\303%\010<gK\033>\321\371\263\273\242\246\222\275R\232\370\274\243\367\221\275\225S\t\276P\023[>u\003\255\274\3717\333=\244\270\255\275\256u\013\275\316\316K\275\2343\214\275\346\325\017\274\026\263\232\273s\365\346\275jP\227\274\220jo=u4a\276\3262\241\275|\3253>T~\006>\273?\002\276\020P\000\275\306\301\023\275\332t:=\374\005\246\274\243\300a=v$\341\275\r;\312\274\033R\020\275Z?6>\335#\256=\312U\212\275]\212\017>lzT\274\2629\022\274\371\010\233\275e\013*\276\300\201\252\275e\334(=\271\300\037\276\201N\027\275S\250V>\357!]=J\270\260\275r\010\317=]\031.=\270\221\360\275k\204$=\210\224\024\2761\305\370=\326\n\243\275\'\356\007>\334r8\275\nj\357=\034d\321=\024\333G\276\234o2>\215\305\023=\355A=\275y`\246=\354y\230=!BC=\022T\013>D\370\007>\360\212\350=!\226n=\360[\336\274\212\303\342\275c\177\276;C\021\230\275\303t3\276\237\":>C60>\035.\261\275\0310+=l !>S\016\274\2747\366\326<Yf \276\032q\036=\235\302@\276h7^\275\t\224\001>\264)5\276t\250\217<\035\323\376\275d:\342=u\324r\276\274-\002>\033\335\346\274\305\346U=\257.\344<\013\220\t\275D\327\004>s\t\200=\371u\334\274il\330=\250)\323=\222#%>\274D\360\274 \350\033\276VwQ\275~\302\033>\023\203\300\275]7\310\2756\320\316\275G\275\031\274h\303\366\275G\264\363\275;\221\031>}-\361=c5\010\276\007L\204\275\rx\'>\234\007A\276\344B\021<\277\217x\275K\031t>\035,0>e|Q\276\333\326!=\002=\034\276\360\024\270=\033\274\313=\003P\317=xc\031>v4-=:\341\261=\245\304-\275\234\0337>\016F\327\275[it\274\221\324u\275\201\035\022<%\025)\276|\365\236\275-\354{=\261u1\276\361\343l=\225N\300\274\037\2029\276\330m\375\274J\240\202<@C\337<m\272\004> 32=\237t\326<\265\021v\276\002~\014\275\333ET\275wf\034=.Z;\275j\273{;\275%\210=\253\024\257\273u,Y\273\350\211P=\366\002\230=?l\311=\362C\277\275\003\251\355=)W*=\242:c=x\330\304\275y\020\027=\235\247\034\275E-\247\275\371\324\321\275\356\031\333=W\332\253\275_Wf>\256>\346\274\300\311\371=\260f\243\274\375\204\037\276\021o\333\275\247j\307;b\300\351=\370\031\031\276\364\230T=\307\262\221=zV\037\276\267\004\317\274\\)\302=\200\022?\276\016r:\276\344\010#=\300\253\320=`\305T\276\362\374\025\276{RA>w+\006>\211\2043\2760\263\013<\373\330\370\275X{S=\254\267\232<\201\t1>zu\332=_4\201=\322\226\251=;\346T\275\021B4=0\tq=m\363V\276/32<\t\n\"\275L\t\032\2748E\270==\354A> \340R\276\312\346-\275x*\205=u\336\256=\331\320\337<,\232V<\335:\023>\324\255x>(\275y=\211\206<>\362j\370;\226\0326=\332\207\347=\n#O\275\363\317#\276\3612B>\255\325C;\262\2641>\253\226\305\275C\230\200=X\220\376<\304#\n\276\261D\303\274\333\201\304\275\300\000\331<\034%9>T8\303\275\201\033\204<8\r\333;\310\017\363;.\005-\275$\245\001=\017\266\026>\177\216h\275u\312b=\214d\236=\210\347\260\274\374\'\324\274\3245\213\275]\352\252\275\227\244\367=M@\236\274\203\305\'\274;/3\276\345\355\017\275\246\304k>27\023=\216\273\314\274\033\324\022\276\266\225\027\276\230\300\314=\305Fd=2\327\031=\333(\224\274\210\n3>\271X\304=Q\321\t>^\362d=+5\373;\315\374A\276\020\032\t>\006\246\010>/\310\224\275\242C\005>O4\006\276\212f\217\2764\332\000\276R>\300\275\266\246,\275\205\372\324\273\346\221\207>\241\307\201=]\337\205\276\000\361\241=\222\207\313=\213=\007\276L\302\007>\037\343\'>2o\324\274mja=\237%\006\275\341\004\r>\017A7>\034U\336=\364\"\300=i\347\330\275\327\276_>\005\333m\275A\241\235\275l\233\r\273\206R\337\275{\n\001>\'\210\036>\006\272W\276\251\024<\276j0\256<\222\017L\273\244\005\265=\020\276N\273\021\014\313\275\222\311\221=\372q\301;\262\010\317\274\245d\320<\301\376\204\275mb?=Hu^>A\006!\276rf\236\275\303A\312=#h\254\275xR&\276\331Q\255\275\220+\3428\333$J=\332\337X\275\\\221G\276\330\202\017>g\037\376\2755Ef>y\235\235=\332C\241=\237<\"\276\243S\336=Cn\207>\203x\314\274\253\205\026=-_\225=\377!:\276\000~^\275?\037\006>\010\002\032;\333\301\227;y<\214<\034\210\t>\331#*\275\271G\212\276c\255\212=\260\325\213=hEq\275\236\205*\275\332\314\205>f\016\224\275\372\026\203=D\365\270<\022\'!<\013\310\314\274X\361\316<\341|\353\274\216%W\276#\377n=\202M<>\214@\343\275\302\177\002>\375\303\264\275\354\227\215\275M&\003\276<\223\216:\014x\322=\205\033\333\274\254j#>i\230\020>\370\037\216\275\246\001\001\276\276\232==\3623\231=!\021\344\275\236\233\232=\225\256p=\3453<\276\343\204@=T\250\347<\330\277\255\273\221t\303=\335e\361\274!\246\377\275\345\254\217\275 \264\334\273\213\\\021\275X\034\247\275\001(<=\211\247\'<\362\335\003\274N\211J\274\255\211R\276\2049\261\274B\233c=pR\207\275\232\374\3309;\245#=\322_\310\275\007L\224\275\007\366\357\275\302 \236<\3023\020=\247\227\023>\233\004\277=g\315\\=\325\224y\275#\261\251=K\224\265\275\212\025\'=U\277\016\276c\246>\276\313\006f<\006uf\275\362*\266\275\3243\320\274F\254\221\275\237\030#\276\341\320\350\275g\307\033\274!\303\035=\" V=\006\233\030\276\347\232\036=q\006\206\275\206\350Z\276\005\237e\275\317\250\234<a\305\213=\340\351\245=\301p\202\276*?\020\276\364\352\376=\363uR=J:\025\275*\303q=\000{\247\274\331Y<:\005\036\025\275\272\274\261\275\002Q\320\275n\223\302\275rg\351=\210=:>\303\224+\276\264#\364<;\026\205=O].\275\232j\242\275\324\354\025\273\036\325I\275\r\317:\275%\366\336=<\301\211\276\221\274\026\275;\nu\273-<\302\275_{\371<\274\225\327\275\355j\362=\371c\024\275\207z)\276\265\362@\276\254\237\332\274\244\221\027>\345\371\223=\256\035\016=\374\335s\275\355\311,=\"\266J>d\362\036\2768\270\317=I>->&9\201\276\014\277\203\275\362\200\200\275\270\256\302\275\274\336\016>\261v\240\275@\272\225=\301\370\271=\000\241\300=\276\022\r\273\203(\037>P\247x\275\361N\221<\375\327\226<\013\021\272>?\226\313\275\3169F>\262\253+=x\311x\275\231\007\"\275%\254\"<\"\017\246\276c\240\254=\022N\273=\362\244}\275\307\360\324=\203\211}\275\021=\351\275\037q\030\276\327\252\340\275!MO>s\007.>N=@=\373k\213;^u\014>\323|\r\276\006m\223<\252\352\213<\0270b>\t*\014>\232Z\342\275|\353\352=7Z\242\275B\017\\\275\232\031X\2759\262-=Bd\322=\352zE=\375z\036>\246\257I\276\315\301^=)\244K\276\177\3761\275\333`\354\274\377\231\002>\2721\002>\325A\023\275\375w\350=\000\313\026=`B\252=\314{\363\275\366 \007<\200]\224\275\023Z&=lg\013\274\222Z\363\274B@\026\276\261\263\036\2764-\227\274b\253\026\276\027\332\000>\225\365\253\275O\000\372\275\004\376\242=9\201\351=\370@\212<\231\306\250\275\233\277\210\275\273\375\014>\224\340\332\275:\355\037\276\206\2456=X\254a\273+f\030>#i\223\275\030\241\240\275\371\036\360\275u\026\360:7\335?>L}\364\274\021h\037\275\215\3668\276\334+\005\276\207\257`=ySE= ]\004>\004\'\'>\275\272\036\274&\016*\276\203\254\310<^\"\323\275\314\327\350=izM\275\365c\216=\234;\010\2767\320\016\276F\244\000\276$\324!>\206\342c\276\265\234\252\274\326P\346=\336D\341<\337\313\003?\357\333n=\250\031\253=Z\367\273=19E<\007\251{\275`\234\227>\0077e\275\177\006\263\275Y\266\023>\311yh\276\235\305\274\276\014\373\230\275+ \350;h\304\355<\356\317M>\317\222\206=\312\257\232\274\003\332\241\274\237\231\032\276\305\250\313<\3728\243\275\226\340\026=t\014\261=P\375+\275U\r\314<Q\017\253\275"
      }
    }
  }
}
node {
  name: "sequential_1/lstm_1/Read/ReadVariableOp/resource"
  op: "Const"
  attr {
    key: "dtype"
    value {
      type: DT_FLOAT
    }
  }
  attr {
    key: "value"
    value {
      tensor {
        dtype: DT_FLOAT
        tensor_shape {
          dim {
            size: 12
          }
          dim {
            size: 128
          }
        }
        tensor_content: "\363\036\030>\363\177,\276Xq\027>\202\030\231\275\320\213\017>Q\017\235\275\332s\027>\000\3138\276\323m\021=\312u\306<\236\320?=\223\003\215\275\312\356/\276\034\205\026\276n\330I=g\021\256=\304\307\305=\246\261\210>T\363\303=\373\246[\275\205\232~>U\205\010>\251\262\367\275\023eN=\330\023\010\276\344\032\204=\266\320\207=\242\017\023\276\336\270\373\275\001\026<>\237\335\3659\246\330\014\275\334\307\227=.\210W=\336UX\276w|Z=\2709!\275-\024(=AW\243\275\304\341\242\275@M|=\035,}\275\243\220J\275\030^\001>\277\214A\276\033w\263\275\3123_<\352\030\277=DH\273=\335^\003=\302\345\031>\343\203\353\275s1\003\2755!S\276\366\211 ;\213\233\332\275i(I\275\346\274\226<\267\374\206\276\200\256\262=\273G\"\276\010\252\300=;\235\320\274\003/\340=\340j\374=\356\356\372\274\004A<>\3223\317=D\333\021\276\'\0166\276\277Uq\274\326P\034<\22564\276|\250\021>\271Tz\276\301\223N=\302\321\202\274\366\334\377\275O\316\361=?q\017\275\252\233\'>\022\267\225\276\230y\\\275\344Z\374\274\3628\362=\'\341+>\335a\204\275s+\n> |\007<\r\344U>Z&0\273\333\267O>\223\324\007>K\006\017>\036\303`\273$i\240=\225\260N<R\016+\273\023KX\276*~I>\350J\">cW;\276h\211\025\275\227\262\302\275\334mz\275\212\266<>o\200\016>\037\242\321\275\355\0004\276\240o?\276\376\231\027>\371\\\203<\233=4>\371+\222=;?L\276\344\254\241\275i[R\275\252\317\037\276\307g\222\276\306\177\t=\034\227)<I\261-=\313\006^\276\371\'\014>G\264b>\352\275w>%\001\257>\236\214\215\272\230\270\233\275Uoe>\006\357\005\2746\253\305\275V\360U<\250f^\275\373Q\266\2758\211T\276\205\300,=w\370R>\303\000\360;\371\337@>\221\307 \276dv\\\276\246\017\201\276\034L\035\276\350b)\276\272\3302\275\357v\007\276\244?w\276F\353\240:\365\263\201\276\016\277%>\342\n<=\377s\217=\020\217\224>\377\006y>\034c\227>\202,\263=\222\3733\276\236\233M\276w\262L=\261\371;\276\265\325D=\"u\217\275\307\336\212\275\001\2555>0zX\276\246_\336\275\304l\013\276\267\366\226>IOd=\355k\367\275\245L\366\274n\344\314\275\014\303\345\275\243\346\006\276|_\024\275{# >\367m\247\275TH9\276\370\300\367=\320\215\002>\265\035g>\216\252}=\365{\276=\343*\301>zV>\275\325\230\321=\273\3536\276\006\251\264\275\240\343P>\0176\035\276\306\252\021\276\362\r\355\275\004]f>\264\333\022\276\217_\240<9\260\237=#e\354\275\255\305?\275{8[\276B;\261=G\343\014\2767^!\276\037\253\032>\364}\213>\240#\372\275D\367\035>\201\350\300\275\376\254\351\275v\261\273=\276\323^>h\031\226\275B\267\206\270\326\277\336=\342\274\327\275\026\311<=\371\254\260\274\216\021\225\276R\225h\276\357f@\276#\343^=[ \002>-\315\002>l\332\306\2746\352\372\274\0252C\276\214\035\\>\357\307h\275\312\332O>\362\224\026\276\314LW>\226\030\000\276b\226$>\035\227`>1\364\222=H\365\032\276\322\nT>\237H\345<\'\377\231>\036\033\231\275\202\217\340=\013g><-#\302=\263.>>O4.>\031\241U\276\372`\360\275\036\313M>u\201\213>\342\2411>\035\"\r>?\2010\275\2322y\274@<\036>\024\272\030>\325\355+>DH\374\275V%\305=\302I\007>\307\251;=\211\027\216\275\353C$>\235$X>\326\234}=(\241>\275}\036P\276>\276\006\276\313\335\367\275\255b\343>[Z\377\275\r\221\212\275&&J\2762#\336=\374M\323>\365j\016>\226\030.>\260Q\201>\373\334\336=\\\n\233=\301\253\204\276f$*\276\255\256\247>\217R#>\311k0\276\335A,>d\340\250>ZQ\020\276\246\240<\276\277\317\031\276}1\335\275x%\202>\234S\237=O\375H\2742\345\272=\022U\312\276\273\266\333\274\334\2135\276q<l\276s.V>\336\253\352=`y\236>{\244\027>q&L>l\310?\276\323\223j>\363\237z>\204^\202>x$\346\275\336\245,\276\215\205M>\001\372\214>\2042\274\275q\224[\276p\t\332\275K\033^\276\314\352\014=\253\273\000>r\351\216>\024\r\366\275\235*#=k|b\276\270ZM>{c\360<f-\334\276b\370%>\327\315\365\276\"\246\r\276\374\305\n\276\266\364\033=\311_1>~b]\275Wv\342<\266:\337\270\247\tL<n\202\027\276BZO>\364\267\376\275%}\354\275\326\336\023\276\336\302.>\330\313\317;,\0226\275v\316\006>L\317e>\364\274\234=`\315\233\276\022\223\320\274\274>\322\275\225\235\354\2734\034u>\022\247e>\022\311D>\251\204\001\276?\034\200\276@+\326>\001\r\010<]\346\037\276\355\254\246>\344\242L\276i\225\207=\342\202\003\276\332\266\204\276\220\323\373=\201\014\237>\234g\322\275,{g>\260\355\275>oG\236\276y\014=\276\273[0?\320?\250>[\034\237\276q^\376=\237-\037\276\177\016\361\275\2702]\276\320\365\000\276\301\033\207>\363Np>\304\352<=Z\321\266=\353\335\330\275\311\247\023\276\300+h\276~\247\356=[q\373==\027U>SsK\276\325\2403\276\307\006\355<\230\"\201\276\325\267h\275\212\263t\275\200\204\342>?u\375\275\251:\241>\300\266\227>\300\234\263<\347\327\335<\216\225R<\331:\252\275/*M>SV/=\274 \244\274>`\305=\242t!\276\317\376b\2760f!=,\250\274\275\242\204\016>\002\211\315=\335\317\321\274\036\244\315\274\247\264\356>\352#\367\274\356\244\250\276U\233k>\366_\312\275\303\2436>CR%\276j\032\227\275a\033\007\275\211R\231\275s\331o=zZ\211\275\214t\016=\346\036p>\2756\204=\231\2659>\3767~\276\2466~\275C\354\021\276\236\235\032={\356\200\272_\304\013>\307ci>;\347&=+a\234=\331kC=\205$\005>\203\027\245=TP\375\275O\205\326=V\351\255<\366J\251=\025R\006>@Y\014>.\204\004\275\355\325j\274r\337s\2756\215\242\275\271\357\372<\276o\013\276\217\215@=C\273\006\276G+t>\272\254\r=Qz\307\274\254q\005\275\030\027->W\224\030>Vq8\275\tZ\355=G\324%=\242/4\276\003V\023\276\202\236J\275\354\270z\275\2434\315=\304\322\014=\256\210\267>\333\230\213\276\000\331\303<\265\341F\276\214\025L\275!\337\367<\213l\321\275\270P\262>Op\206\275}\036&>\035\217A>\246\330\004\276Xh\226\275b\352\303;CU\032=PoA><k\356\275fu\216\275|\336\364\275\025\371r<\230l\224\275\r\265K\276$\313\264\276\200/\344\274\314q\231>D\310\225>\n\220\372\275u\257\232>\340\351D\276\024\353T>\251\236P=\003\235\\>\037\240\341\275\3148\212\276#d\320\276\336E\001>\031\266\003\277\304\310\363\275,\"5>\177=\250>\177!\345>\010<\251\276hb\212\276I\371\\>\326\342S>g\"\275\276\357\276\n\276D\317y=\223uU\276\224\204\016\276\000\2177>\245 s\275\243n\215\276@\241\257>\341\215\031\276s\016\206\276\213\362\217\2755\020N>\326\261\001\274\224v\265>a\267\211\275jG\273=\374\365C=\223\203\022\276\324P\216>\021\326\307\275\246\351\244>\203\230\251:S\013\273=Z\276\326\275\2774\350=\372*\217\276A\305\016>\242\373\033\276a\310\236\275\367\211\233<\307a8>\376\277\315\275C\376\214\275a+\302\276\272^\223\275:\353\332\274+p\277<\"\003O>\350\320W\276\334R\205\276\223\343\003\2751J?\276)v->X\255\205\275\327\017\025\276F\\\244\275.\346\016=f\025u>\314\216\301\275x\217c\276g\373\210>T\221\226\275D\320\223\274\243\365_\274\036\361\312=\313K;>\2536]>\366\010\036>\3225\267=.\344\224\276\252\'L>\361\255\236>V\374\000?\372W\212>\356\037\216>\250\376\034>\020Io=\355!\033\273\377gJ>=40\276\311\243\322\2753\366\322>\366\207\355=3\232+<\325/[>\005\2123\276\241\271\306=,\275\347\275\222\307\264>\375\006\342=]\324\233\276\240\306\201>\272\343\231\276\250\017a\274\\\220\251\275\273\313\240\275G\377L>P\362\010\276,\224b<a<\251\276\233\206;>bC\002<on3>\006a`\275\224.\317=\007\256\001\276>-\003\276\270=s\274l\225\242=?3\r\276Ch\377\275\244ot>+wk\276\2068\256>\262\350\362>\017\003?\276,\233^>U9\273=\226\367&\275\272\017\344>\362n\222>\207\320\332\275q\374\376>\345\324\n\276\354\343\356>L:J>g\210\004>\216\306\232\274\324\377\322>\312\001\302=\002t9<\010\271\004>\3236\035\274\357\243\265\276\023\352\212>\217Xy\2753\343\202\276\021+\354>\031g\360\275\302\226W=Y\3118>\350b\037=\270[\242;\203\245\223>\037\306\221\276\251\362\366\275t\352\225>\214\345\221\275\367\312\001>\204_\356\276p\340V\276\242\273\235>+j\215\275\224\201\236>J\353\212=\331\2646\276\035S\253\276\223\014\240=\257\n\265\275}a\234>/\2032>k\2661=\307\320\252\274e\362\333>\033K\334=5\317\270\276\024\300->\253V\377=\241O\255\276kVI\276U\205\371=0\035?>U\247\004>\225\217\030>\3024\305\275\023\024\204\275\222NJ>6\271\"\276~\026\337<r\316\207>\233\230\021\276\037\025i\274e\267\315\275\240!\342\274QT\200>M\003*>\325\3221>\306\327\222=\315W\350=\312{\340\275B8W\275\037\265\036\274PU\213;\245\264N>{\0323\276\332I\271\275{\332\265\275B\327\271\276\201=K\276\316\355\316=H\247b>\276\037?\276\232Q\343<\377\346\347=~1\323=\213\220\\\275\256\215\\\276\377\342\220\276\001\237\014\276?\317$\276\272c(\275\215)t\274\203\0335\276,\347K\276\200\303\017\276tT\307\275\302n4\275*!r>\227\277\354=o)#\276\'\022\\>L)\234=.{\203>\267\026\240\274\325\204T>K\344\233=\244\325\230<[\265\304>\006\336\310\275n9\361=\3206\217\274\3051\362\275{\363\334\276L\253\234>S\334\303\275\315U\233\276\342\362\240>\014I\364=d\223\034>\266\001\213=\257\236\253<\002,\026?\026i\357=\231\3542\273b\241\312\276\341`\030\277\263\277\202\276\351?r>r\025\305>\013\215\255<=\004\265>je\212\276r0\201=\264t\252>e\207\235=\216\0211>\304K\013?\363p\244\275%\226\372=-\325d>\033\016\022>\223h\266\276\230\301\353>\024m\321>\230\216I>71?>\253\177S=&\355\226\276\377\317\366\275&>\205\276\326\003\273>3\nV>\227\331\332\275_\366\254>I\330\226=\364\232\265>\020M\223;\302\363\t\276N\345\"=\tIS>Mn\332>\376D1>a\307J\276\205\020\003:\325\254\345>M\023>\2744=\333\275\213\314\366\274E\205\037>\002\035\036>\373C+\276\000\261_\276\200\332&\276\326\367\272\275\017^\"\275\024\021\177>\225d\241=\004(\016?e^\276\275\033\304\331\276\354\031\242\276\341\270\362\275E\276@\276\014f\302\273N\256l>\300\321^\276m\362\370\275\0160\006?\216\374V\274O\307\211\274\207\322r>\302\365\364>9Pr\276\024\350\314\275\350\365\231\2748f\032\276\224\371\224\275E4\353=\275\304(=\241\t\256\276x@Q=\377\204\265<_\337\370\275\177\245W>\002\323\031\276\363|w=\276\260\016=\302\307\204>\203\027\375\275\003\031\001?D\\\232\276l\273\252\276V\241&>\316\360>\276<\276t\273\31248>;\324\237>}\216\001\276b\354#\276\267YY\2760\335N=\300\360\253\275\227\341\026>f7\263<\026z#=\325\222\361;\346\270\352=/\342t\275\262\217\314\275q\230\332\275r\005\245\2761\225\231\276\321(\023\276i\207\211>\372:\037\276y&\241\276=UC>\343p\034>\203br\274\035\222\254=\320\201\260>GWN>\360@\263=\030{\201\276\355\322\206<\"\311\\>\257\004M\276\nl\346<\227L\246=\225\326\301\271\226\021\320=\312\271\305>Ec\255\275\177\032\n\276\307\302\241>M\365\r?Y\364\r\276\324\341\201\276\006\224\300=g\304\213\276\210 \265>\267\312\325=\277\323\010\276\221\027\031\276\223\261[=\252\214\255>\331C\252=\336\320\214>-\013\206=\377H\351\275\022`\017\276\232\377\221=\302\027K\276\320\261\206\275a\246\035>\253\347\245>\276\255\235\276.\307\213>\273/\306=\237\3403?\222\250\310>\264\214\276\276$\016r>rC\205\275\227Iu=\347\r\224>\317^U=\377O\230=z\016\211\276\003\227\274>\003B7>\006\r\250\275m`\263\275\203\237\370=S\\\t>`\367\022\275\234c\013\276\335t\201>@\335\303\275\203\315\241\275\241\371\347\275-\020C\276R\335\245=\034\347\272\275\357C\317\274\246\363\030>\347\375t=\271>w=\205\256\002\275Er\331\275\006gy>} ::\307D=\276P\277\204\275\030k\217\274 P\351\276\017\372\225=\314\323;=\023\210\306=\332&!\276\313\354\244\275A\2079>.\246\246;\323\301*>\343\"H>\275\001\313\275y\227\222>\326\"\327=\257z\224=l\367\024>\r\007\035\276\250\024\210\276\311\366\326\275\353B\316\275QQ\204>\260\202\204\276\302qo>\004\364X\2766\221\257=S{\330>\333`Y\276\315\036\003>\022\2156\276\344\301\233>\353E\230\276\014F.>4\236\033\276\214\340\217>\316}\237\276\245{B>\352\021\353=\374\276]\275\013\204L>\016\203\344=M\r4\276\200\355\351\275\007\010\256>\247\216X>\242gd\276Yk\010\276\371/n\275\n\322`>[\346\323=\2060+\273N\0160=\025\374\214\276\330<\261\275\270\250X=\207~u=\2408==T\204\267=\2467\000\2773\267j\2761O\343\276\271\361\237>\210\002\000?\024Uy\275\200iV\276XE\342\275\n\014\305\276\264\315I\274\334\332\273=y\353\001?\226\242\264>\204+o\276<\275&>c\243 >\r\256\214;\356gA\2762S\002\276N\003>\276\324v\t>\364\215W>\264L\336\275\223\324\237\275\342\225\374=\325X3\277\261V\r:R\306\331\275\326D\220\276\264w\252>S\t\032\276T\006`=\357=\333\275\343/d\275M\304G\275\327\030?><-\214\275K\201\023\276\234\245\332\275RK\223<\335\375\365<\205\264\251\273\351\220\200>\365a\220=\355\316\277>n%\213\275)\377$\276c\032\347<%\031\356=\300\227\336<\331\025\023>P\367h>U\253 \276\273~\367=\311g\231\275\332\323E\276\242_\224=\272\316P>\374\002\255>\206\316]\276*\355\262\275\334\022\326\275>\352\317=\207\273\025\276\014\234\036<\'8\244\276\263)\325=`\337\025>\003q\373\274\265\323\275=\361\273\016\276c\202];\0337\021\276\246E\217>9\t\224=\233\312\242=\232~z<6\272\345\275@\177\273\275=`\005\276q\306\337=\372\026W\273E\013\210=\203h\354\274\352\353\257\274(\000$\276\272\231\221>\037\016\213<NX%\276q\324\235\274\031\245=>t\374`\276#g$\274\221$\334\275\223\307\221\276\375\034\221\274\260}\210=\366\271\347\275.b/>f\320\233<\020\263\330\273hj\r=\212\234\255\275Q\267c=R\317\253\274\232*_\276o\235d>\233\004\300\275\002\222\251\276\002\340y\274M\007\"\274\362\363^\276\202\340\274=\272^]\276\010\224\231>\2724\024\276\356*/\276\264\241<>\256i\346\275\232\317\"\274\031\204\334=\311a3>a\033-\276N\347\241\276\336\257\035>\305\2660>m:\245=7\024\210=B\264\"\276=\335\014\276\034\034\276\274Z\"\034>\207;\005=\272\317\316\275U\032\346<RB\037\276\330E\256=\003\340d\275J\r\031=z\007\267:\034\364\177>\026h\303\276~.J\276\327\220\200\275{M/>\320O\001>8w^=\0358\374\275\326\3372\276d\202<>c\364 \276z1\371=O\031\275=\251\216\241\275YO\204<\025\357\356=aC\207=\276\325\366\275<\304\232=\276\013Q\276\035\370\250=\"\322\275\275\235\016\237=r0+\275*Ll=m\215\264\275WH\000=\017\3629\275|\254J\2768\024\r>\033\256\207=\017\300\346\275\036\3003=\354\013g=ug\333=i\214O\274Gz\017>\203}\211\275\323\016\'\275F\\\253\275\216\003\327<g\002:\276\216\372\233\275A\240Q>=q\245\2751\351\273:\027\263(>\025\360\253\275\342\021\001\276IY\324\275\230\005\226\275\345\\\230\274no\267\274\332\031(\276/\233\210\275\227\022.\276\034\2739\276\262\265\271=\225\255x\275\345\224\223\275r\024\302\275}C\020\276\373\013\\\276X\232\341=Mz\244\275\250\202E=\250\\,\276yD\026>\373x\355;Nl\025\276{5G>\3252.=JF\006\275\2435X>\007\242X=O\220\334\275\244\362\267\274\007\357h=\023\016Y\275\267\t\017\275w\305\215\275`\364\321\275^\364\234:c\204\204<\026`&\275mwN=I\231`\276\331\312\337=\227\250A>\\p\340\275\367D\211\275\026\017\222=\272\002^=\353ju\274\003\364S\274\337{\023>K\352\212\275\364\272\023=\216\263\230\274\257\247\241=\302\256q\275c^\366=#\245\032=\226\343}\275-\307\265\275\017\3346=(R\210=\023\327I>\232r\244=\376C\000\275(\272\253\275\206\266f\276\357dU\276\305\253;=\005w\327\2756\034\002>/G\340<\211\253\213=2\200\323\275z]-\276\263\264{=G\363~>\235N\322\273\214jH=~O\260\2734\211\017=\014n\020=Y%\271\275i\235\230<\013(\326\274A\345\337\275\226u5=\270\255\367\275\306\007->8\026\312\273K\271\020\276\341~p=p\315-=i\333\371<\2237%<\205Z\222\274\245\177\222=Z_D\276\001f\017\276\210e\333\275\273\306\256=\257M\225\275\352\225\306\275\007l\354=a\205!\276\312\330\233<8\321\021\276\351\267\310<\020W\276\2757$^>\\\323\206=pAn\276\325\227\220>\200,d\275\217\207*>k\315\241<}\254F>\025\027\352\275\017J/>\266\250\000=\373T\001<\010I\033\276M\237\376\275\035\335\345\274O\205\314=47t\276d\360<\276\203\213\024\276Q\360(<\206\267\267\274\257D\344=\317V\227=\024\013\005\275\004\327\363;\0149\232=/\226\016\276\272\322\t>\334\355[>\016\366\310\275B\356;\276\252AI=\300 #\275_=&\275\272,\007\275\323=\033\276RjN\2761\2032\276N\034\376=\231\n\014<\224#{\276\351?\222\276\246\332H\276\275\030 \276Oy\205\2751F\267=\361\rL\276\327]\037>\035P\t>\306\324-<\251\360\273\275\336\241\'>\211\034\303\275G\273R=\"u\202\275\3221\367=pF\r<\262\214;=M\212\t\276\337\330z>}\'J>\325st=\316\3761>\317\262\001\276q.\366\275\333\315z\276R\213\036>~\025\001>\006\203\233=g\242\303=\343ld\276\344\200C<7Q\255=x+\375=v(\031\276U~\304\274\236\036L=\361[\002\276\244\375\257<\224\202\016>\352_$\275n\331\315=\370\223\236=\327O\016\276 p\007<2\262\361=\346\302Q=\245\255\377<\215\342\362=\320f\337\275R]\311\274\036\273q<\215\031M\276\341\337\230\274\027\253\363<Ys\261=\332\260#\274\361 />\232M\225\275\305\261\310\275\250A\321\275\020\000\223\275.\244\217\275K4K\275\304\263\020\276Q\225\177=\177\010.\276\020\030\005=\024\222\310<\232\202\027\276\233\375\376\273 R\236\275\203\0032=\304os\276\347\021b>\330\253\376\274\337\373\017=^\217\251>\335\251\302\275\037s\037<\017I\232\273\275_E=\251\037>\2744\006u\276\3434H\275\215y\022\276|\227\211;\253\351\244=Zd\001\276\014=/\276\211\347\021\276z\002\330\275L\350\261:,\022{\276x)\240\275@\317P<n\330r=\007\345\'=^\210O\276\327:k\275M\257\336=\027\304\325\275\310\263P\275\267\336+==\367$>l<\223\274L\037B\275Y\242Z>[\\\273\275\244\"\334<\n\033\034>\020j\223=T\203\251=]\220\"<\3051\022\275\r\316\327;\316\267\214\274\001z\242\275\233\213\331<o\344\262=\203b\001\275\310\320\373=4d\001=L\245)>\327\n\305=.\364\215\275\271\233\331\275pX\305\275\270\023\230\275\374\031\315=\234\341C\275u\324\227=\306E.\275<(h\275\365\364\t\276\201\353w=)\206\343=M\360\245\275\"\226\225\274\016\023\003=K\r\325\274CKH\274\254\023f\275\356\201_>\333\027\310\274[%\371=\277!<>\010\234\302=\242\214\354\275\3035\313\274\010\364\254\275!\024\202>\202\316r>\341\352\240\275\274\273,\276\256e\356\275\003\357#\275\224\324\362=\006\261,\276\324T\375\274\350Y\004>\020\353\004=nw\260=\3453\030\276;\020r\276rT=>\203\231;\276%F\322\2746Ad>\341i\250\275\3278\323=x\247\216\275\354t1\274*\337\242\275\347M\211;\220\272\276\275p0\322\275|}\013\276z\213t=\376\350l>w[\234\274\374\303\037=y\276A\275\270Y\217=%\017\016>\343\240#>\215\251\235=O\251\350=\371-L\275\336Q\004\276\014\021H=\004\2039>\235\3539>U\374\277=\000Y\025\276}s\037\276\025\\\240\274HV\366=\013\253C=\277\344\004\276\277\251*>rg\275=\0318\213\275\344\350\365<h\335\233="
      }
    }
  }
}
node {
  name: "sequential_1/lstm_1/PartitionedCall/TensorArrayV2Stack/TensorListStack/element_shape"
  op: "Const"
  attr {
    key: "dtype"
    value {
      type: DT_INT32
    }
  }
  attr {
    key: "value"
    value {
      tensor {
        dtype: DT_INT32
        tensor_shape {
          dim {
            size: 2
          }
        }
        tensor_content: "\377\377\377\377 \000\000\000"
      }
    }
  }
}
node {
  name: "sequential_1/lstm_1/PartitionedCall/transpose_1/perm"
  op: "Const"
  attr {
    key: "dtype"
    value {
      type: DT_INT32
    }
  }
  attr {
    key: "value"
    value {
      tensor {
        dtype: DT_INT32
        tensor_shape {
          dim {
            size: 3
          }
        }
        tensor_content: "\001\000\000\000\000\000\000\000\002\000\000\000"
      }
    }
  }
}
node {
  name: "sequential_1/flatten/Const"
  op: "Const"
  attr {
    key: "dtype"
    value {
      type: DT_INT32
    }
  }
  attr {
    key: "value"
    value {
      tensor {
        dtype: DT_INT32
        tensor_shape {
          dim {
            size: 2
          }
        }
        tensor_content: "\377\377\377\377\200\014\000\000"
      }
    }
  }
}
node {
  name: "sequential_1/dense_1/MatMul/ReadVariableOp/resource"
  op: "Const"
  attr {
    key: "dtype"
    value {
      type: DT_FLOAT
    }
  }
  attr {
    key: "value"
    value {
      tensor {
        dtype: DT_FLOAT
        tensor_shape {
          dim {
            size: 3200
          }
          dim {
            size: 64
          }
        }
        tensor_content: "\317\271\017<\035b\247\274*m\034\274\2404\270;\256\030\353\274\030n\220;\363k\254\274\3301\240<\316\311\305\274\025\250\247;\264\017\375\274\325\373\006\275cMX\275\371\343\253<\347\016\200<\033p[\275\205\256\215<\350\362\263<kX\001\275\305\264\251=\026\272\022\275\034\257\376\274\035\364N\275\333\025\257<|\212 \275\313\376.=H\\\343<\276\366\261<\273\200\252\274sB\013\275\t\024!\275\233\004\244\274,\235y\274\331\304\241<:\023\313\274o\016\277\274np\037<o\330L\275\375\224\275<&\034e;.\001<\275\244\317\235\275I. \274\355\214c\273\367\370\217;\310L\312\275\356X\272\274\026\3557\275\345\233\r=a\211\205\275\246\322\317\274Ie\320<\177\240\212:\325 \257<\355\317\236\273\022\200\372\272w\3540\275\021\225\344\273\325\330\027<\357\021I\273\2757\212=Y%o\274WK\273<\321 \305\274\312\252\262\2745\303\025\275\033\rD\274\2055\026<\350\275\213\274\376\035V\273\232j\225\274Ma0\275y\307\201\274&\236\034\274\324\003\265\274&mZ\275n&\177<YC\004\274\305\242k<\217\307\005\275\025\026\236<\205\200\324<\212o\241\274\346\275d\274N\024d=\271\r\364<\257\2014\273\276\252\014<\267\303w;S\261\235=\201\246\n=\301\267\256\273\277=\020:$\253\200<p2\250\274\240f\'\275\304 \217<\216t\366\275\204\347\270<\036\243\027\275\022\024q<K+%=L\001/\274wY\320<\262\306\216<\\\333\350\274\014\001V\275\222t\022\274\203\361.=\364\2503=7\202\002\275x\356\210<\rX\325;\257\006<=\316\203\036\274oT\005\275Li\351\274Ik\026\275\204-\020\274\341\3559<^\234\035;TG\231<\257[\254;\'\034\266;-z\021\276Z\276\350<\203B\326\274+\032\301=\313\3274<[eO\274\001fj\274A\215)\274\201\356\373=\213\365\363<t\313\305\274>\032\244;\304\\\030\272\366S\363\274\020\264\305\273]\036\220\275\224\225\010\2751\276]<\322%Z=\031xH\275?o\332<>\322\025\275\360\224\306<\031\212\354<)p\305<<\202\020\275_\343\230\274\365De<\212\267\346\274\337\322(\275p\324G\275\255\337\022=\001\263\270\273*o\240\274o\304z\274\216\0372\275\323G\236\274gvw\273\200\0108\273EKC<\220\301&=\331\323\'\275q\010\004\275\022M\010<\235\261\014<\002\213\016\275%\263\227:\300q\205=3q\305\274\266\021\366<\311\345d<\013\023a\275\273\327\006<>R\351\274 \215D\275cd\207<>(9\275\370\267\030=\346\302\325<(\322\177\275VL\262;\303\032 \275\034@\000=p\334\030=\202h\325\274e\306J\275\0261\022\275Z6@\275\016V\230\275\n\261\230\274\\4\346\274\037D0\275\347\025\376\273Q\213>\275\213S\266\274\006.\261=II\362\2742@\200<\332\020\324\274.\013[\275\335s\000=\007\323\035\274\227\373\313\270w\214\235\274\267\036\006=\2729\212\273\363R\237<8\033\211=\211sB:\231\376\340\274e\232\024;\367\206\346\274\003\035\325<\337\246F\275\3375\\=l\263z=\207\030\201\273\277\206\275<\010X\267\274\331\203$\275.vy\272\024\271\355<\374\231\263<a\3254=\217\331\311=\271\021\270<bN6\275\000\360F\275\036^\200\272\331\343\251;;\207\353<~\222\016\275o\303p<\375\256t\275\221.A<\353\330U\275s\017\373<\003\243\016\2746\344\005\2755\021\254<\256;_\274\334F\223\274\247\217\022<\332\321\"=~\033\004\275\267\311\220<|c\t=:\374c\275\367\200\373=_\025a<=0\245=8KE\274@o\233\2754Fz\274\360\t\217<\364\033\t=\247D_\274Q\322\335<\300\300::\235FG=\375\327\227;\004\033i\275n\212i\275\0246D\275\233P\257\274\207\373\213\274y\331\021=G\330\005=\307\\\357\274\232\356=\275\312%G\275\225\367|\275dv\220\272>\355\010\275\215R5=c\371\317<\232k\244\273\030\216\344;\3267M\275Cf\001\273x\321);\215X?\275\320\031\301\274_\222\014\275\244Sj\274\357\t\010\274r\334\240<\020~R\275+\014 =\255n\222;\025B,\275\n\242\376\274\2156\301\273\304K\002\275\271\206\014\275\241\004\314:\025}\342<\3324\334\274K\232\013\274O\227\033\275\324\233\241<\223\t7\275\024i\233\273[\225\244<\207C\021=\223h\031=\3331\277\274\315\267\242;\225\224\323;\323\006`<X\312\362<v\177\207<\210J\222;\276\225\271<jJ\331\275\342B\265<\344\346\333\275y\243\031<\242\222f<\375\002\337\274ou\304\274{\300\003=4\346\034<>\311]=\375f\313\273OXd\274\232\007\203\2743\024$=\247\274\030\273\333\356S<\375_\327<\267\214\005=\r\246\323<\227\226\033;*6G\274\230\246\211=\006\307\335<\'\026\341\274o\255\036\274\302\360\323<\3342\'=T2{=2, \275\t$Z\274\302\324\026=~\274\310\273u2\370<\253\\\276\274\375\363\t;\375\315\220;&\374\343\274\230*\002\275!M\301\275M\306\\=\210M\231;\316\236|\275\351DC=Y\314[\274&\340\025\274\236\017\263\274k\316\251\274\211\006\345\275H\005\320\274\244\265\231;\340\370\227\274\016<~\274\t\242\311\274\223\010\266=\\\320T\274\205\277\237<m\003\267\274\215\370b9D\021\306<\3049\000\274\304\227T;PL\237\271\355[\351=\262\257\367<\335Z\t\276wj\277\272\317\266+<\271\370\010\274\355\"\203<-\322\227:\216\"\370\274$\327\333</\350\3259\270\247c\274N\005\006\275\220@\250<\274\022H<-j\260;\364f\005\275\251\245\302\274T\366p\273 @2\274\352O\033=U\217\224<F{\207<\025\266\t\275B\253v\274\375\346\000\275\210\337\223\274\262\345o\274\265\321*<\\,\247<\353\373\010=\365\364\233<\032\357\270<\034\352\000\274\351S:\275\255\177\217<T\250\000=>\324*=\310\032\2149\177dF;\'\224\273\273\230\245(\275\035{\332<j\254Z;6y\356\274\020\0368\275Ib7\275\350\013\021=\222\243\036\275%\326\324;+\227\304\274,\016\204\273\252$\351<\307\355\007=\257\002\360\274\355K\002<\207\336|\2745\215z\274Nh\007<vL\036=\020\246u\274SVR\274\354\334\t\2751\377r\275\310\325\366:&\246\030\275\266t\267=\206\353\306\274\206\352\331<\376b\214;\033\325/\274n\226\367<\316\324\371<,MQ<\0178b<(|\217:\017-\033\275\0376\373<\251/\327<\260\274==P\300\261\274\344\360\241\273\265\372\014\275@\327\002\275\204I?\274Xz\267<!\264\363\270q-t\2756_\270\274K\343\032\273e\316w<=\243d<:\362\277\273\261\301(<\350\035&;\242\211\023\273\014\016)=\236\365\027<pd\341<6\267\337;u\032)=\231\341F=/K\207\274\362d4\275t\321{;\355\017I\274*$\275<r\353\\\274,\006\233\273\031bZ\273\237n\203\2732\014\354\273\276\366\037=\017\226\235=3\363\273;s\203\364:=\032\030<tx\305\274\375\367\210<\323\377#=/\370s<\231\355&=\203x\212\273\205\302\032;\347\021\324:\211\274z;\342\001\027\274\306\003*\274c=+\275\313W\306<j\003j\275zA\022<\006\003\251\274\310\017\037\275\2318<\275k\257\205\274\223\210\342=\25190\275\370\030\'\275\265\224\017\275W\360\036\275,\326\023\274\r$\270<X\376\004<\014\330\005<\007\370\203\274\2361[\275]\213\366;\2357\354<U\037u;ug\216<e\230\310<V*\243<\313G\303\274$\306x=\325\261\253<\253\333\355<\217jU=l\001\333<\003\267g<m\'X\275\305\310F=\'`g<\212\242\007\275\304\256\250\274\210\320\252<z\274\001\275o\"j=-\276\273\274g(_;\3142\205\274}\253v=\304t\2429 *C\275O\214\235\274\207\177z\274H\215\220=1k\207=h\232]=\267\227\251\274X\230\211<\013\311\206=\246\315\344;\035N\325\275\013}\271:\361\2308\275\233\263\342;\373\333\244\274|\244~=TF\203=()9\274S\313\202<\037W\t\276\r\024p=A3\240=\031\340\t\274I5L\275\375>\n\274\311\300\036\275\217\215s\275\303q\030\273[\\\330<\235\210\344<\004h\324=w\336\346\274\000x+\275\031\245\304\274B\321\036<s]@\275\316\351\236\274f\312s\274\256\230S\275@\267!=\360G\326<O\373\007\275@Y+\275$}\326\274;J\236<\306z&=K\315,\275\235B\353;\034\341(\275KN7=0\304\2648>\2428\275Ep~\274\252\231>\275\261o\275<`)\001\275\203/\000\275\217|\337\274<\346\010\275EyI\275u^_\272\353%q\274,\316\321\274\242\273\315<\341+ \274\254\345\260<l/D<\025\333\333\274\340\313E=e\t0\274\020\337\275<0\006\365;\004\3079\275\010B:\275\360\263\260=l\315\363<\362G\317\274I\245\216\274{;2<\210\225\211:u4T=\271u%=\332`\027\275\333\351\245=\215k,<M\225b=\245\017>=J\243\033<\333$\020\275\336h\036\275\2519\022\275\301<\300<]5\302<\363\253\026\275\357|I=Et\263<\236\274\220<\341-\314<R\245\010<$\325\003\275\247\023\r<\267\006\204\274\202\372?\275&\2072\275\262\344#\275\272@\224<w\206\337=J\224\217\274V2o\275y\332\255\274\2377\371<A\362y<<!\006<\351\rP<\252\333\003\275\216\020I\274\\%\267\274\335\362\315<\206\023\233\274\205L\335\274jK\230<L\377,\275\220=5\275\016\222\330\274\227K3\275\276]Z\274`\304\215\275\342v\037\275\234\306/\275\355\016\273;\000\307\270\274\177\204\200\275<\305F\275\274\223\356;HI\231\274%N\221\274\352\275\335\274\205\237\204\274d\356><\370\213O\274\343\010\243\273\357\351M\273-\331\025\274S\3738\275B\1770\274`\020_\275\036&\002\275\233)\002=\235\tt<<%\262\274_>\246<\007\322\247\273\316D\222<\357\241\330<\262\251\200\274u\257G\274\314T\021\274\014Hg<j\216\014\274f\014#=f.\022\2759\220\030=;\357|=R\314\273<\261\001\246:\365\256\007\274V\024\230\274l\320\n=\004\233\255<~%\"=\242\205X\275\250;\300<<\275\337;>\346\256=&\002G=cV\006=B\333,=k\"\024\274\202\225K=\265$\220;?\016\300\274\205\003\360\2739\3708=\005\226Z=\325\025$\275\333q\327<\036_\371\274!A\274\275\360\225Q=\006\365\r=\2054\230<gO\256\273(\334B\275y\233\003=\203X\333\273se\323;\003X\327\274:\300 \274\001\274-:\335C\346<\214\375{<\330\332\223=|P\232<\\+\032=\254\256?\274\3411/=\345X\241<\035\205a=\375t\200<\215\304!=\005)\300<\216\3711\275\312Jh=\007UP\275\177A\273<\203\0066\275\016\371\026=\034MR=\003\363\353<\245gv<,\3453\274\224\314s=v\301\020<R6C=b\335\315<\337\266\232\274\242\205C<q\351\205;\341\254\017=<\373\013<\021\035E<aH$=\215@F\274]\361\016\273\337\335\236\274=\246\332\273\227}\r=G\321$=\273\306d;\243\316%=DZ\007=\220V\227=s\334\223\274\021\346\203\272\216\030\010=jZ\255;\206\016(<\237\016i\274Y%c\275\337\320\263<\307\320\366\274W\261\242\275\21504=C5\201=\267\223\263\274\032R\243<\2455\347<2\254\003=\257\253\374\274\364\212D\2744\376N\275o\032\372\274:\205\206\273\210k\022\275\321\321\247<\237l\206;FR5\275\351\244\376\274U@\t\275\254\352\257\272\254\034\315<e\215\214<<0\310\2742\204\027\274\032f\343<\334\366\235\273s\364\354<7f\212:\212\364\237=Fz\375<`<\350\273\250 .<X\366\212\273\223\337\020\274\010u\274;\247\260M=\375\315\354\273\027.\226=\374m\270;-H\234=\035\004\267\274\227\037\274<\236\026\026\2740M\326<\361\010t=\353E\361\273\266\265e=\346i\355<\203\267\202=\324Y\016=\037#\021<E\223\234=\353t\236\273\370y\226\274\n\035|=\301\371\234<\260I\330\274\365\345P=g\245i=\323>$\275\037\240\000<I\252\345<\000(\320\273\360\014\315\274\263\271;=\354\247\331\274%\234M=\343+C\272\316\222\253\274\027\303H<\266\000\355\274`2\034\273\365\202\267\274\357.\262\274\220\036/<V\035\215<\272\317\215;\332TR=\201\005\243\274%\316`=+\216\023\275\257\312F\274o\313\212\274b\\\036\274\325\005\213<\201\0229=\372\261\201=\'L?=U\222\032=N&t\275\236\n\346\273*\3019\275,*\014=\363\347\003=-\330;<\265\305\236<S\2661\275E^\005>h\220\376;\305`\266<\'\376\020\275\016I\327\272`\256J;\230\3766<\"P<\275\327\272\267\274\230\3050=J\202T\274\010\205\261\274z*\024<\271l\306\273\275\257\007<\326\277\213\2752\024)\2756\2049<P\013\233<\014o\251\274\245\324\024=Ac\035=A\236+\275\224JB<\202\217!=\366i\374<\311k\262\275\000\210u\270= \302\273E\311}\273\357,\311\274\274= \2758\246\337\275\231}\026=\275\302\r\275\201\3008=\222\216\245<!mD\275/2\003=\\\336\245<~\355\310\273\347\356\243=)\225\\\274eD\362<\233\370<\274\301\200\032\275\032\000\306<\202\235Z<Ow\234\273\'\232m\275\"\375\222\274k\241\276\274\32580\275\362\035\335;\246\334[\275U-#\275m\016z\276\237\177\235\274R\207\270\273\276#\261;\203\364K=U<\304;R\030~\274\301\315\227<\244\001\225=\316Pr<\2241%\275\314\017)\274\230\221\270\274\224\210\000=rw\232<\226 \203<\225\312\241\273,\037\014=\270Y\201\2746\334\330;\220\2426=_\333-<\376\2310\275\256\036X\273\004q\330<b\231\036=\227\017p=\225\250\346<_\204\371\273\203\240\374\274\022C2=un7<\313\361\257<:\204g\274\341\332\025\275\037\365\361\2742\310s\274,m\005\275\311lm9\353\226\021\275>\350\311\273\247(N<JN\371\274\"\030\217<\274z{<\263\313\034\275\223\251C<}Z<\272\235\ti<\261\034\247=\023m\206<v\302o\274\230\004\263\273\020\206\003\274H\242\251<\017\220x=\177\210\251\273}\313\334;\006s\252<\321o\222<z+\217\274w\334\022<^\033\233\274\270T\014=\201\020\021\275M4\022=\3520\260<u\220\330\274\345\365\203\274!H_=\211M\034\273\025p\300\2742\304\006\267\224\353\304\274f\304\376<\2436:<:\361c=\220\377\001=\323\316\014=\276o\302<4\325@\275\366\343:=\201\013\314<\211\261\035\275f(\320\274\tC\231<\342\341\350<\220\335\313\274\370\032\200\273\213C\305<Y\010\255;<1\t;\325|R=}\306&=`]\200=r\345\024\275\213|\236;\274h\355\273\217`\001\275\n2?<]Bf\273{\0359\275\364\007\226<\377\351\036\275\212\352k=\356\215\001=%\232\027\274\351a\253=\254\222#<*n\276\274\340*\344<\335@\272\274qN\030<9\367\347\273#,z;\223L\n\275\355\320\213\274/\302\214\275\364\366 =j\307\347\274\001\013P=\370\0066=j\315y\274\030H\336<\370E\344;\313B\277\274\315\257\333<\275\367\002=\020e\236\275i\215\222<F\361(\274\325\277:\275\253\342\370;\254\252/\272\241;\220\275\242\312,=\207\271D\276<\336\351<\340\324.<\305\210\220\274z;Z\274\013\244Z<\ts\220\273h~L< OK<\314\264\037=\307G\376\274\264\022\022<\374k\245\274\r\262\260<\0173\270=\273.\031>\204\302U=\327s =\2364\245\273G\354c\273\3272\210\274\004\0003\275\003\264\210=KuM\275U\000u=\244\342\021=co\211\274\307\361\353\272\222\261\020\275\255\225g>\236\327\235\274!\317t=\302|\002=`W\032=\262\177\264<\310S\207\274[\035\243\273\310!\261=\nTL<<\355Q=&6o=\312\0218\276\026m2=\364\037\007=?)\314<d\251\360=\202:\202\275\242\034P\276|pr<|$\t\276\300]\317<\263~}<\326\023n<m\224\020<\303\325\016=\020\222\225\273\377t\036>Arn=i\000\207>\343\302\315<Y%\263=\207!\216\273\021\010{=\273\312\270;J\235S=8\264\017\275\225\325}=\014\253\017=\227D\027=T\016\307<\210\2368\275\262\307\r=#1\024=\366L*=\000J\301;\336`\274\273W\264\n=\252J\213<\203\0233\275Z\351Y\275\207\320\325\272\007\236\220<\367`f=\332\342.\274\"\217\342\274qbF<9\033\221=t\232\305<YiB<zQ\036<\321\014\001\275%\000\270\274?\210\r\274+\202\317=%\231\005\275\n\255\256\272\324\315\242\275\277\001n=P\034\022=\002\306M=i\312\275=]}\021=gV\007<\221\013\320<*\360J=+\373\023=\367\224\355\274K\232\374<\330\373P\275\342\335k\273\026U!\275\251/\346\274n\n!=\207Z\270\275\345\316J<C\213\";o\203\316;\313\254\276<8,\025=P\017\024\274\270&y\275\277\312\014\274)\231\323<\024eF=H\021t\275\016%{<5\3631\275\003\264\017=\370S\244\275Q]\211\273h)\257<\000\212\204=\014\26779\373\251\200\274\257\265e\274\200\251\202\273\374\255\371\274H\366\302<\037\203\333\274[\343\244<\243\0176:\236Ag\273\000Y\001<<\030f=V\217\013\275\006\305\233\275\014\032W\274\275+\224<P\021\036\275\321\263<\275\354\302\207\274\024O\322\274\211\341\201\275\244\366:\274\271\177\023=\211j\233<.^\036\273\370\027\000;\206\364/\274G\204&\275\260\324c=6z\35099S\023\275d\200\000\274\265g$\275\366\031u<1F\314;\340\201\266\275\224\237\310;t\227e\274@\236\275\274i\234\025\275\264i\035<r\302R;\355\302\034\275\304\256\313=\215\354)\273\271|\n=`\371\214<L\007\036\275\336\220\305\273\350[\034\275R\254\357\274\352\\\226\274\017TY>+K\005=\r\023P\274\352\\\231<i\256U\275_k\262<,\241\003\275;*\320\274\034\354=;^\266\306<\200\0174\275q\025):\347oQ\275Z\300v\275\211\211\230<K\212\325\2749\035\327\274\264\202\357;\223>_\274Y\214\035\274B\020P<\221\262\261<\264W\222\2748Z\230<+cg<\177\336\030<\261\261\202\275\271\020\'\275z\347<\275\365\243\214\275\276\225\263<4C\r\275\023\376B\273\210\022\237<*\265\224<u\017\372\274\031\016#<\265\246W<_\326\267\272\351\331y\2731\001\n=A\241\244<oVe\2750R\037\275`\370\222<\227\320H\273R\254\351<\203O\320<\255\315}\274\005\030\374<\312\333\307\273\325g8<Py+\275Rc\251\275\001\324\312;%\252\211<\211\353\227;\036N!=\266\032\r\275%\027l\275%\\\347\273\253Q\367<f\342\037\275\233\n{<\204\223!\271%&m\272t\236$=T\016\2179xB\322;\007\363!=\231e\002\274\013\336D\272\035r\241=o\024\006<\354_\274\274\211\365\235;O\232q\274ew\262<~P\303<w\334@\275?\025\254<\264\177A=\325\310-<\223\375\217<\017\213b=\024\236I=\333%\\=c\205\337=\342\233v\274\224wB\273\267\014\233<\264\332@=\\\033\232<S\230@<\366\036q=\\YC=n\006p=`d\030=^]\231<PS\265<t\235m=O\362\265<\346t\234<\344\036>\275\004\006\315\275\244\347J\274\205b@\272=AH\275!\200\227;\352.\004\275Re\300\274\261\246\265=\t\225A\274\267:x\275\356d\000\275k\346\230<a\260\306<%\014\203\274\023<\204\274\227\270\217\275\016X6=\343~\265<\230?L=6\266\005=\032\037u=h#:\273=&=\273\271\006\177=\002\3735\275#\363\310\273\260\305\376\274\270\200\211\273\372~\312<GH\"<\244\352\177=I\234\344<\025FB\274\366\262\233\274Y\361\234<\376\216-\274\013\016\001\274Y\032];9Z-\274s\023Z=\311SC=\341\003\003=Y\262\254\271\221-\233;\224g\200\2736U\243<\315\007\036\274\\\200\014>p\377\234<9\225\210=Gp\334:\013\273.=\215\312\005\275\267\035~\274\'\330x<\017\205y<\004ny=\241\355D\275{\243\333<\376\303\246\274\231\207\020\275?\366\250=P\334\313<\207\023\327<\\]!=QUQ\275\007_\334\274\320\370\236\275A\036\326<\200\220V;$\231\260<\266\277\260=\0267\024=#:\244\275\263-\333\274\333o\001=\253\335\231\274\360\212\350\273\314\207<=\357]P\275\203\n\211\274\257\t\377=\272\006\337\273\343\311\025<\360.\203\274\2636X\275\333\314O;d\317R<\314\324\033>\254)\010\275\362m\342\273\347\250\347\274Lwx\275\222\334\375\274\213\036R=\005Vt\274\312\317\003<~\224\211<\345\377\023;\350\375x\271\332\'6=\222\223~=EX$=V\373\217<v8\340<\206h\261<\004\016\315:\036\310$<\177\321\365\274\301\264\023\274i:u=yl\036\273\216\314H=R\006\316\274\223\264\216=\3007\342<\013\330[=\354c\003<\010\357\327\275\314H~\275\317\301\177=\3563!=\225l\274;B\331\354<kf\242\274\006l\243=\337N\271\274\354\372\000=+\324\255=cI\254<\325\254\261\273\277\250*\274\333\246>={[\357<\262\2750<\314\254\274<\016\362\255\2747\335V=\375\373\277<\242+#=\377Jb;z\212\016=\366\364\277;z\032\372<\360\332\363;x\302\376<s<\017\273\216\344\210=\023\245\335\274\2522\312\274\342\t\024=\372\232r<\306M@\275\217\321,<\355\353\271\275\305\323\371<\247\302\323\274\233l\017=\276.k\275\367o\230\273\242\324\244\275dZ\256\275\252\\D\275]z\031\275\311=\263;\334\326\205\274\204\312\254\275=Z\207\275\314=_\273\031f\325\272K\267\221<>\014$\275\274\336\036=\037\302b<O\246\323\273\271RD\275\3142\245\274\335\323\256\274\020\347\260\274\372@$\275\3526/\274i\210\013;\331B\365<\023\240\211<Q\010\235\275\313g\252\274\337\036V\275{\251\017<\177\244\260<\022\020i\274$7\367\274*LQ\274}\264\222\274Q\253\330;\247\0070<\362\2743=\024\360\256\275F\254\315\274\320d\336<\tN\377<\230t\344\274+\326\250<\005\240\227\274\321\231\021\274\226\2735\275\364\3430\272\327\374<\2735\320\t\275\260N\336:\375%\230\274\"n\200\274Q\223\322\275\321\331\002\275\314\274b\275\370\240\217\275\025cI\275\364\232F\275\364\313K\274%\243?=E\200I\275\353\207e<.\307\205<mQ:\2753\221\206<\272K)\276\376\004\017\275\223\000\373<\315\034\374<\235\014\210\272\243X\014\273e\267\036=^\350\202=\256.?=I\227\314\274\365,\242\274[f?=\\= <b\n><yv\214<\273b\345<\356v^\274\247\016\215\274\347\343g==k\007=\337\024\304<m\372\260:\316Y\214\2753\342\210=\354y.\274{-\277\274t\212\004>\275\025#\272D\357\036\274tD\211\275,~\255\274f\251\233=\374\220\252=\206j+=7\221\r;eT[\273\000a\301\274\244\353\201=}\254C=\363\274c=y5\213;T\232\276\275\303\006M=\2160@<6P\317\274$@\243<\265\n\r=\032\2573\273?E\030=\355\034\301=\233\247\211;Q1?\274\344\353\344;\341Y\260<\206\036\323=\301SX\274\317`<>\370K\346<\315\217\275=JbZ\274\025\256\266=P\300\234\274Q%=\275\020T\276;\325\036\r>\023\031T\275\371\330\234\275\356<Z=\337\362\221\274?g\022\275\243\341\031\274S?\255;\264/\023\275\342\266\316\273\276\030\213\275\026d\330\274\024*\002\275<\243\\\274A\021\240\273\212\013i\274?\022L\275\326\'\313\274\250\350E\274=\031T\273\223\322\277\273a\210\267<\236>,\275\244K\'=\350\273\233<\333wH<T\322A;,\264}\275Yp\263\274\237\021\335\275\245\357\276\273)D\307\274\016\231\247\275\333\350\017\275f\266]<@\270w<\002\202\353<\035\376\n\275\337\237K<Iq\312:\316\255\004=\237\224\353= 5\003=J\346,\275\002\177\257\274\0060\326\274\326\326\262<c\355\254=CZ\272\274S^\344<B\005\245<\272M\220<;m\251\275\307\200y\275\220tb\275\021Vh\275^`\220;s\325`\275\2639\370<\256\362I\275\241\016\010=\361V\221<\265\347\t=\022\316\340\274e\344\007\275\351\3536;a\301D\275\177}\217\274\317\364\331\274\317\201-=\346\234t<\243\271\321:;pV<\214v\017\275B\216n<\"8l\275\036\370\315\273*\342\226<S\032&<\3111;\275\247\227\016=mv\242\275~\016_\275\313\276+=\306G\226;\331\036\004=\367\374\272=\323z1=a\351\033\275\n\036s<\357\212F\275\356\305\200<\277(\201\274\027a\236\275-\207\342<\260\205\2429\276:X=\344\354\"\275\330\025%\275\350$\004<C\226)\275J\250\270\274\tu\030\275c\020\273<D\376\250;d\336\371\2747\355\332<\240~\000<\177\200\t<\227\343\253\274v\311\003\274\333\217j\275a\003\250\274\330\274\240\275` \033<\216l\354\274U\307o\2755\340?\275\253C\272\274<UP\275\220\340\216:\235\354J\275\324U\262=\211\205\346<Iu\373;\231\201\305\274\316c\243\274y\237=\275/\306\304\274\000\335:\274N\307\356\273\356\033\006=\003\364S\274sM\361:,\351\205\274 9Q\275\336\372\177\273a\326\t\273\270\324\215\274I\244\315;\205\237\262\274\030\366\317<\037\301\014=3w\232\274\274\201\304\274o\210:<<\310\246\274\324\216\023;\0137\203\274\272\264\t\274\351\013\006\275\260\311\017\275\002\026H\272?sf<fH2\274\016\335#\274\361\220\371\274\002\350\321\274Y]}<\030\324\n<\275\343\342<\243c%\274\002|\341;\361J\n\274\272\354\016=\t\023\237\274}-8\275Q\202\003<\321\305x\275\216\376\317\274B$\250:\324\344a=\204\336\260\274!\370\021\275\266s\020\275\223\230\\<\207\362\261\274b\213T\274\033\210\350<\023\266\022\275\020\034\244\274\036z*=^\321M=\343\306\270\272\210\353\311;\212\250\233\274\274z\021\274\331-\224;{\222\253\274\333:\207<\233\346\246<67\'\275w\t_<\364\325\276<\323A\004=\363M9\275\010I~<\023\217\242<L\003;\274}>8=p\230#\275\222\254X=\254\023\014=\363q\263;j\3406;\200\236\030<&m\202\274\017D\224\273\226\354\r\274\302\006\253:!\005\327<#\t\225\274\232\205\256<\246\367\345<\027\301\245\275d\230\177\275\354\334%=\223\300w<=%\236<\305\333R<\350\334\267\274\363w\244\275^\202.\275\336E\254<\217p\033\275\003\364L=pD|\274\024k\034<\327\310z=\366\237\261<\220\334c\274L\031x<\370ih\275\220\266\276=T\307>=\316m\353\274\211\226;=\206\003^\275K.\373<z\360D\272\001\202\252<\242\332 \275\212\210\310<\232\315\320<m\316n\274`\364J\274eg\255\274\202\0266;\005\364\222=\307\342p=\342\263\337<8I\002:z\177\200\274I>\337<\365A\343<\356\303\215=s\331H=\005(\244;K\255O\274\230\253\205\275F\004^=;\251\017\273b\014\031\274\353\270\303<\256\373\037<\331\200\325<\355K\275\272\215]\035<\325\333\215\274Gf\352<\373J6;\026\234\350=(S\003=\037(I=J\322\300<\037\301\362<\223\357\306<_a\200\273\326\364\003\276\231m\034=n\362>=\272\005\026=\334c\300<\251\365f\274.\250\322\273\302\345\034>`\244x=\272\360\367;Q@5=l8<=P\370m\271\363\304V=J[;=\226\345\007<P\313\346\274\'B\215\2741\032\037=\261\325}\275\n\310\022=t\322I=+\026\221\274J\0234=\240\033o=\263\214x\275\262\263+\274\216\242\271=\257,N=P\0348<4\306\371;l5\013=\314Co\275t\262\322\273S\213Y\275\364W\231<;X\274\275\240\210.\2748ie\275\234\360\004=\236\255\373\274*\006+={|4\276\324A\013=-\220\224=\370Id\275\331\003\337<\371$|=\022]\376<l#\276\275\342_\237=\231\356\355<i\372\370;P\216\337=\210\336\230<H\224\254=\252\341D=\343\247\223=D?\241=\223\300E<6\013\256<oBd=\006a\200\274T\032\026=\006g\374\275zF6\275/\r\014=\311\263\277\273\223\366\321\274\275\2713<\017\037\222\274Td\251=\241\310\326<\274_\227=\200\003Q>}\3735=\314\355\201;\267\334\356<\244\372\005\276\340\221\255\274\336K\367\271&\014p=X(\363\274\200\377\300<7\206\323<\326H2=h\324\230=*\347\000>|\341\301<K\361\361\274l81<\004\360:\275N\005\036\274-\262\231\273\273\356\276<\"\242\356<P|\245\274\355\210\231<\357\364\326\274\274\263\276\273D,\322\274\"\230\315=\255\206P\275\345\234\034\273\022i3\275u\270\241< \031\007\275n\257\213\273\200\277c\275\345\031H=n\236\004<E\247\021=\241\320\233\274.\031\240\274\032w9\275\001\016\031=\213\264G<\246\262Y\275|\234 =\304\277}\274\213\363\360\274\321\337\006>\205\025J<E\250\020\275+\353k\275\256\306\"\275g5\341\274\372\373O\274\356!\332\274\361\225\343\274O`\273\274\322F\200;\rH\r\274\203\371>\274]&9\275\317\317f=\267\033\225<\206=\374<\303k&=m\305\374\272\256\236\206\274y\272I\275\332\264\313\274fjA\2759\236\373<\230\304#\275\231\355B\275\301$\353\274\3630\304<Cyc\275\267]\353\274\310\177D\272\200c\007\275\026d\025\275\307\244\273\272\330\337\335<{C\276\273\305#\375\273S\245!<\376\035\353\274gP\036\275\350I\231<j\240\247=;B\276\274D4e=mX$\274)*\"=\001\241!<?e\302;\201\331\300<\224C\264\272v\233\014\2753W\201\274\344\027\205\275\247.,\274\030\002\211<\230\332Y<\317\031n\275\242\260j=\337\360Y\274\323V$;>\230\265<\263nN=\227\324a=R\252\231<\304\250}<!\0001\274\222\357\t=9\226\204\275&\037)\275_\r\245\273{\026\250=\355\350\031==\006\004=\377@\010=\021\374\221\274\206\361\034\274\302\304\022=j\275\320<`,\235\275N\355\217\273\320\373\340\272\215o3\275\212\327k=C\205\233:\021\263Q=\245\221\r;\245cb\275FE\020\275\273\3422\275\262\254?\272\314\320\240<\244g-\275?\004\032;\"`w:|\004k\274\2466\032<\242\350\204\274\227\344x\274\013\213\223\275\025\032k;\013\274\023=\366\336O<\326\301?=D\216\212\275\334Z\002\274LX\023\276C\255?\273\361:\334\274\302z\243=TJ\377<\034\2263\274O\017\240\273\317\017\327<\302\243\331=W2\022=\217DX<\312\027?;Gs\340\274O\223I\275\210\271\032\275\300\232\255\275\257\324\036\275/g\371<U\307\"=\314\006\'\275d\350\206\273J D\274\374\231\361\274\326\270d\274\242\353Q<\366\0249\275\352\371,<%\366\306\274\350WF\274\303m\346;\365pz\274\253\237\234\274\300P\220<\\$\336\273\001\302\003\275\223\007\257<\333o\206<\"F\257\274A\361\235\273o\315\270<oO\025;\223\243\020<\244\350\021\275\t=>=\001\270\030=\274\035%\274\017D\271\272\346\232\276<f\303\201\275\036\322b;3\355\014\273\377M8\275(\3467<\247\215\207\275\306\330\213\273\254\306\003=/o(\273\305Jm\273\265\364K\275\366k\"\275\354\331\030\275\0170\036\275\205\237\031<\010\226\243<y\310\031\275Fs(:3\031:\274\247\0054\274\311\352x\275\340?\003\273\336\205p\274\0160\030=\274\211\212\275d\277L\274X\332S\273\245v\305=,O\321<A\210\200<\"\036\300\274\233\372&\275\217\335\360<\204(\213\274?\366\t\275\353\247\373\274\307\255\227<2\023K:t\014\210:\'\276\022=\017\2426\275\n\257\"\273\377\022*\275}\355\004<\250j0\275\253\263P\274W=r=\327\2402:\037\263\241\273F\327\306\274h\242\241\274G\342\336;B:\222<\0179+=\252e\262;&\267\303<\003\334\335=\207M\200<aD$\274\202\010R;\312\351\237\271\017\271#\273\244\021\373\274J\232\013\275~R\307;\341;X\275\255?\013\275\202d\341<Q\007~\274\320\315\365\274\376\240W\275\245\263<\275\265\006\244\274r\250e\275\034&\317<\272\2031=\356p\276\274\265.W\275\037%\220<\272yt\275\221I\022=\335\214\024\275\353\225\267=<\252M\275\325l\225<\020\022\242\273B\204x\2745f\217\274\024\256\010=\307\374\366<\333!\307<\342\201\253\274Y\263\006\274r\342\030\275\214\316:\275O#)\274{\331\020\275\257B\346<\323D\017=\347\000\307;\340@\023\275\256\341\226<\"\362\215<\262WC\275P\320\203\274*X_\275e0\n\275\024\177\305\274\034e\376\273Jho;\366v\251\2758\217\204<1\350\0228\342\006\335<\034IE\275\014\034\334\274P\346\214<dY\037\274\000\003C<\262\207\202\274\331\021\273\274\365\332\266\274\t\377\315\274\274+\007\275~\224\352<\245\315x<|\022\246\274\000\240$=\006\017\316\274`\356\003\275\305m\232:m?\026<`\302\263\274\021/\375\2748 ;\273\024\312\372<\320\334#\275\333u\353<\n\343\025<}\314\225; \355A\275fw\t=l\341\252\274\034\237;\274\r.\244<r\275\354\274\307y\373\274P@\220<\217}\376\275\005\262\373;.\325\260\274\263\342\021\274X\217\240\275\322}z<2\260\232<\226\272\244<\366N3=\206\227{<\007\323\020<\003\027\236<\311\241]\274X/\021\275A?\030=\364\372G<\214\373\310\274\001.,=\341\271\024<\265\226w<\375o\\\274\321\267\330\274\276\2662\273\256\330\374<\255\2360=\216o\362\274\331\2626\274\307\201\227;l\003\025=\236\371\207\274V\210-=zx\351\274*~\'=\231\177\227<\366\266F=\225\002\236\273\377\2654\2759S\001=rE\267;\214 #\274\236\354n<a\310\225\274\027\370\261<@S\300<hO\271<\217(\330\275D\261\274<\325Z\255<\226-0=Hf\006=;\236\013=\t\333\267=\322\005\257<\314\311\000=\355\2110;\241F\367<\'\323\000<\214\313\000\271\370\332\333<2r\177\273\222(\263=\274\271\032<\245\374\261\275*#\365<\275\340X=\365\237\036\275<\354\232\274\235\226:\275\215F\237\274B\243\322;4(\263\274\204\345s\275\327OF<\036\374|;P \363<\013\263^\274\314%m;\337\357\333\273\203\374r\275\013\266\356\274V\340\032\275<\225\346<\310o\001\275\031\333\221<\300aD<9\r\220;N: \275\234\205`;\257%*\275\005<\324<\351\207G\274\223\355A\274\372\356\306\274\356\312\200<\010\n\023\275\023\375o\275\306dN\274\315\030#\275\321\n\n=\216\037\032\2758\202\206<R\274U<\253\017o;\325\361\003<\332%\232<\253\223.\274v\251%\275\177C\257\274\345-8\275\033\013\025:R=o\274\210Y\324\274Cj\026=5\340p\2742W)\275\375\336\347\274\251\376F\274\0131`\274B\304\002\274/\200\025\272\257\203\023;.\335\003<\037\217\213\274\027\022\031\275#M\207<\031\016\255\274e\337\273=)GR<\237\001\360<%d#<o#\033\275v\376\340<\211\023I\274Ccs\274 